{
  "version": "1.0",
  "truncation": null,
  "padding": null,
  "added_tokens": [
    {
      "id": 0,
      "content": "[UNK]",
      "single_word": false,
      "lstrip": false,
      "rstrip": false,
      "normalized": false,
      "special": true
    },
    {
      "id": 1,
      "content": "[PAD]",
      "single_word": false,
      "lstrip": false,
      "rstrip": false,
      "normalized": false,
      "special": true
    },
    {
      "id": 2,
      "content": "[BOS]",
      "single_word": false,
      "lstrip": false,
      "rstrip": false,
      "normalized": false,
      "special": true
    },
    {
      "id": 3,
      "content": "[EOS]",
      "single_word": false,
      "lstrip": false,
      "rstrip": false,
      "normalized": false,
      "special": true
    },
    {
      "id": 4,
      "content": "[MASK]",
      "single_word": false,
      "lstrip": false,
      "rstrip": false,
      "normalized": false,
      "special": true
    }
  ],
  "normalizer": {
    "type": "NFC"
  },
  "pre_tokenizer": {
    "type": "ByteLevel",
    "add_prefix_space": false,
    "trim_offsets": true,
    "use_regex": true
  },
  "post_processor": null,
  "decoder": {
    "type": "ByteLevel",
    "add_prefix_space": true,
    "trim_offsets": true,
    "use_regex": true
  },
  "model": {
    "type": "BPE",
    "dropout": null,
    "unk_token": "[UNK]",
    "continuing_subword_prefix": null,
    "end_of_word_suffix": null,
    "fuse_unk": false,
    "byte_fallback": false,
    "ignore_merges": false,
    "vocab": {
      "[UNK]": 0,
      "[PAD]": 1,
      "[BOS]": 2,
      "[EOS]": 3,
      "[MASK]": 4,
      "!": 5,
      "\"": 6,
      "#": 7,
      "$": 8,
      "%": 9,
      "&": 10,
      "'": 11,
      "(": 12,
      ")": 13,
      "*": 14,
      "+": 15,
      ",": 16,
      "-": 17,
      ".": 18,
      "/": 19,
      "0": 20,
      "1": 21,
      "2": 22,
      "3": 23,
      "4": 24,
      "5": 25,
      "6": 26,
      "7": 27,
      "8": 28,
      "9": 29,
      ":": 30,
      ";": 31,
      "<": 32,
      "=": 33,
      ">": 34,
      "?": 35,
      "@": 36,
      "A": 37,
      "B": 38,
      "C": 39,
      "D": 40,
      "E": 41,
      "F": 42,
      "G": 43,
      "H": 44,
      "I": 45,
      "J": 46,
      "K": 47,
      "L": 48,
      "M": 49,
      "N": 50,
      "O": 51,
      "P": 52,
      "Q": 53,
      "R": 54,
      "S": 55,
      "T": 56,
      "U": 57,
      "V": 58,
      "W": 59,
      "X": 60,
      "Y": 61,
      "Z": 62,
      "[": 63,
      "\\": 64,
      "]": 65,
      "^": 66,
      "_": 67,
      "`": 68,
      "a": 69,
      "b": 70,
      "c": 71,
      "d": 72,
      "e": 73,
      "f": 74,
      "g": 75,
      "h": 76,
      "i": 77,
      "j": 78,
      "k": 79,
      "l": 80,
      "m": 81,
      "n": 82,
      "o": 83,
      "p": 84,
      "q": 85,
      "r": 86,
      "s": 87,
      "t": 88,
      "u": 89,
      "v": 90,
      "w": 91,
      "x": 92,
      "y": 93,
      "z": 94,
      "{": 95,
      "|": 96,
      "}": 97,
      "~": 98,
      "¡": 99,
      "¢": 100,
      "£": 101,
      "¤": 102,
      "¥": 103,
      "¦": 104,
      "§": 105,
      "¨": 106,
      "©": 107,
      "ª": 108,
      "«": 109,
      "¬": 110,
      "®": 111,
      "¯": 112,
      "°": 113,
      "±": 114,
      "²": 115,
      "³": 116,
      "´": 117,
      "µ": 118,
      "¶": 119,
      "·": 120,
      "¸": 121,
      "¹": 122,
      "º": 123,
      "»": 124,
      "¼": 125,
      "½": 126,
      "¾": 127,
      "¿": 128,
      "Â": 129,
      "Ã": 130,
      "Ä": 131,
      "Å": 132,
      "Æ": 133,
      "Ç": 134,
      "È": 135,
      "É": 136,
      "Ê": 137,
      "Ë": 138,
      "Ì": 139,
      "Í": 140,
      "Î": 141,
      "Ï": 142,
      "Ð": 143,
      "Ñ": 144,
      "Ò": 145,
      "Ó": 146,
      "Ô": 147,
      "Õ": 148,
      "Ö": 149,
      "×": 150,
      "Ø": 151,
      "Ù": 152,
      "Ú": 153,
      "Û": 154,
      "Ü": 155,
      "ß": 156,
      "à": 157,
      "á": 158,
      "â": 159,
      "ã": 160,
      "ä": 161,
      "å": 162,
      "æ": 163,
      "ç": 164,
      "è": 165,
      "é": 166,
      "ê": 167,
      "ë": 168,
      "ì": 169,
      "í": 170,
      "î": 171,
      "ï": 172,
      "ð": 173,
      "ĉ": 174,
      "Ċ": 175,
      "Ġ": 176,
      "Ģ": 177,
      "ģ": 178,
      "Ĥ": 179,
      "ĥ": 180,
      "Ħ": 181,
      "ħ": 182,
      "Ĩ": 183,
      "ĩ": 184,
      "Ī": 185,
      "ī": 186,
      "Ĭ": 187,
      "ĭ": 188,
      "Į": 189,
      "į": 190,
      "İ": 191,
      "ı": 192,
      "Ĳ": 193,
      "ĳ": 194,
      "Ĵ": 195,
      "ĵ": 196,
      "Ķ": 197,
      "ķ": 198,
      "ĸ": 199,
      "Ĺ": 200,
      "ĺ": 201,
      "Ļ": 202,
      "ļ": 203,
      "Ľ": 204,
      "ľ": 205,
      "Ŀ": 206,
      "ŀ": 207,
      "Ł": 208,
      "ł": 209,
      "Ń": 210,
      "Ġd": 211,
      "en": 212,
      "er": 213,
      "an": 214,
      "es": 215,
      "in": 216,
      "on": 217,
      "Ġp": 218,
      "Ġa": 219,
      "Ġs": 220,
      "Ġt": 221,
      "or": 222,
      "Ġc": 223,
      "Ġde": 224,
      "ar": 225,
      "is": 226,
      "Ġl": 227,
      "at": 228,
      "al": 229,
      "it": 230,
      "ic": 231,
      "re": 232,
      "he": 233,
      "Ġe": 234,
      "Ġm": 235,
      "as": 236,
      "os": 237,
      "Ġo": 238,
      "ie": 239,
      "ent": 240,
      "Ã©": 241,
      "un": 242,
      "ro": 243,
      "Ġw": 244,
      "el": 245,
      "Ġf": 246,
      "Ġn": 247,
      "ch": 248,
      "ion": 249,
      "ol": 250,
      "Ġin": 251,
      "ur": 252,
      "Ġb": 253,
      "om": 254,
      "te": 255,
      "Ġv": 256,
      "ad": 257,
      "le": 258,
      "Ġ1": 259,
      "il": 260,
      "qu": 261,
      "and": 262,
      "Ġ(": 263,
      "Ġthe": 264,
      "us": 265,
      "ĠS": 266,
      "ra": 267,
      "ĠA": 268,
      "Ġg": 269,
      "ia": 270,
      "et": 271,
      "id": 272,
      "im": 273,
      "ed": 274,
      "am": 275,
      "Ġla": 276,
      "âĢ": 277,
      "ĠC": 278,
      "ĠM": 279,
      "Ġh": 280,
      "ĠP": 281,
      "ig": 282,
      "Ġun": 283,
      "ut": 284,
      "Ġof": 285,
      "Ã³": 286,
      "Ġen": 287,
      "est": 288,
      "ĠB": 289,
      "ing": 290,
      "em": 291,
      "st": 292,
      "ac": 293,
      "iv": 294,
      "ul": 295,
      "Ġcon": 296,
      "ĠL": 297,
      "ĠT": 298,
      "ist": 299,
      "ĠD": 300,
      "um": 301,
      "Ġ2": 302,
      "Ġz": 303,
      "ĠI": 304,
      "ĠE": 305,
      "Ġre": 306,
      "Ġ19": 307,
      "ow": 308,
      "Ġqu": 309,
      "Ġr": 310,
      "Ġ[": 311,
      "ec": 312,
      "ÅĤ": 313,
      "od": 314,
      "ĠG": 315,
      "ot": 316,
      "ĠR": 317,
      "Ġand": 318,
      "Ġcom": 319,
      "Ġal": 320,
      "ant": 321,
      "Ġdi": 322,
      "ers": 323,
      "ĠF": 324,
      "ir": 325,
      "eg": 326,
      "Ġk": 327,
      "ci": 328,
      "ag": 329,
      "ation": 330,
      "ĠN": 331,
      "ter": 332,
      "ĠH": 333,
      "Ġpr": 334,
      "ÃŃ": 335,
      "Ġpro": 336,
      "ĠÃ": 337,
      "ich": 338,
      "io": 339,
      "Ġth": 340,
      "Ġto": 341,
      "Ġdel": 342,
      "la": 343,
      "Ġpar": 344,
      "ĠW": 345,
      "ce": 346,
      "Ġ20": 347,
      "og": 348,
      "ri": 349,
      "Ġdes": 350,
      "Ġst": 351,
      "ĠJ": 352,
      "de": 353,
      "Ġdo": 354,
      "Ġle": 355,
      "ĠĊ": 356,
      "ĠK": 357,
      "Ġy": 358,
      "to": 359,
      "ab": 360,
      "Ġse": 361,
      "ess": 362,
      "Ã¡": 363,
      "ran": 364,
      "ĠâĢ": 365,
      "ij": 366,
      "ier": 367,
      "op": 368,
      "sk": 369,
      "Ġsu": 370,
      "Ġan": 371,
      "Ġque": 372,
      "Ġj": 373,
      "ta": 374,
      "Ã§": 375,
      "Ġet": 376,
      "Ã£": 377,
      "ct": 378,
      "ĠV": 379,
      "**": 380,
      "Ġhe": 381,
      "ou": 382,
      "Ġis": 383,
      "iz": 384,
      "ĠO": 385,
      "end": 386,
      "Ġfor": 387,
      "ens": 388,
      "ver": 389,
      "Ã£o": 390,
      "ica": 391,
      "ap": 392,
      "ÄĻ": 393,
      "oc": 394,
      "Äħ": 395,
      "Ġvan": 396,
      "ente": 397,
      ").": 398,
      "if": 399,
      "Ġel": 400,
      "ne": 401,
      "ud": 402,
      "ED": 403,
      "Ġder": 404,
      "Ġ-": 405,
      "Ġon": 406,
      "??": 407,
      "ik": 408,
      "Ġda": 409,
      "Ġest": 410,
      "Ġbe": 411,
      "âĢĻ": 412,
      "Ġna": 413,
      "all": 414,
      "ine": 415,
      "Ġes": 416,
      "zy": 417,
      "Ã³n": 418,
      "ord": 419,
      "se": 420,
      "),": 421,
      "th": 422,
      "ere": 423,
      "up": 424,
      "ak": 425,
      "Ġex": 426,
      "ze": 427,
      "ber": 428,
      "ge": 429,
      "ort": 430,
      "Ġas": 431,
      "ung": 432,
      "pr": 433,
      "que": 434,
      "ale": 435,
      "ien": 436,
      "our": 437,
      "ub": 438,
      "ell": 439,
      "tr": 440,
      "che": 441,
      "ĠÃ©": 442,
      "av": 443,
      "Ã¤": 444,
      "ĠIn": 445,
      "Ġdie": 446,
      "Ġi": 447,
      "ĠÃł": 448,
      "Ġdu": 449,
      "Ã¼": 450,
      "Ã¨": 451,
      "ĠU": 452,
      "ov": 453,
      "Ġper": 454,
      "ans": 455,
      "Ġma": 456,
      "Ġund": 457,
      "Å¼": 458,
      "pl": 459,
      "ĠâĢĵ": 460,
      "ten": 461,
      "ff": 462,
      "ado": 463,
      "ob": 464,
      "den": 465,
      "ug": 466,
      "Ġem": 467,
      "Ġpol": 468,
      "00": 469,
      "ass": 470,
      "Ġim": 471,
      "me": 472,
      "Ġau": 473,
      "und": 474,
      "ian": 475,
      "Ġil": 476,
      "Ġar": 477,
      "ond": 478,
      "per": 479,
      "ith": 480,
      "az": 481,
      "ÅĽ": 482,
      "Ġat": 483,
      "ard": 484,
      "ib": 485,
      "ment": 486,
      "Ġles": 487,
      "mat": 488,
      "rit": 489,
      "ico": 490,
      "ĠAn": 491,
      "Ã©s": 492,
      "ys": 493,
      "ies": 494,
      "Ġch": 495,
      "du": 496,
      "ma": 497,
      "Ġor": 498,
      "ill": 499,
      "Ġ18": 500,
      "Ġsp": 501,
      "Ġthat": 502,
      "Ġum": 503,
      "ka": 504,
      "ult": 505,
      "Ġver": 506,
      "ĠZ": 507,
      "Ġhet": 508,
      "Ã§Ã£o": 509,
      "ip": 510,
      "na": 511,
      "ĠThe": 512,
      "Ã©r": 513,
      "ada": 514,
      "19": 515,
      "za": 516,
      "Ġ3": 517,
      "ang": 518,
      "hr": 519,
      "ont": 520,
      "ione": 521,
      "Ġro": 522,
      "ind": 523,
      "ire": 524,
      "iÃ³n": 525,
      "art": 526,
      "Ġcomp": 527,
      "ect": 528,
      "ru": 529,
      "Ġte": 530,
      "Ġwh": 531,
      "AS": 532,
      "Ġpor": 533,
      "Ġ:": 534,
      "ski": 535,
      "ure": 536,
      "Ġer": 537,
      "Ġent": 538,
      "Ġsi": 539,
      "ate": 540,
      "mer": 541,
      "AC": 542,
      "ach": 543,
      "Ġlos": 544,
      "Ġop": 545,
      "Ġno": 546,
      "Ġeen": 547,
      "ial": 548,
      "iel": 549,
      "eb": 550,
      "Ġ200": 551,
      "ACT": 552,
      "isch": 553,
      "EDACT": 554,
      "EDACTED": 555,
      "for": 556,
      "ast": 557,
      "ique": 558,
      "au": 559,
      "Ġpl": 560,
      "NO": 561,
      "UN": 562,
      "MAS": 563,
      "ok": 564,
      "MASK": 565,
      "WN": 566,
      "?]": 567,
      "???]": 568,
      "KNO": 569,
      "REDACTED": 570,
      "KNOWN": 571,
      "UNKNOWN": 572,
      "ÅĦ": 573,
      "idad": 574,
      "Ġso": 575,
      "ity": 576,
      "Ġit": 577,
      "Ġ[???]": 578,
      "cia": 579,
      "ive": 580,
      "olog": 581,
      "ost": 582,
      "uit": 583,
      "Ã³w": 584,
      "ue": 585,
      "ny": 586,
      "Ġtr": 587,
      "Ġwith": 588,
      "Ġuna": 589,
      "no": 590,
      "der": 591,
      "li": 592,
      "ĠSt": 593,
      "ĠÂ": 594,
      "ve": 595,
      "ais": 596,
      "ato": 597,
      "are": 598,
      "Ġap": 599,
      "Ġ201": 600,
      "Ġby": 601,
      "land": 602,
      "ĠDe": 603,
      "ly": 604,
      "man": 605,
      "ĠAl": 606,
      "Ġob": 607,
      "ento": 608,
      "Ġpart": 609,
      "Ã¶": 610,
      "res": 611,
      "pe": 612,
      "Ġvo": 613,
      "Ġche": 614,
      "ay": 615,
      "Ġwas": 616,
      "Ġme": 617,
      "Ãª": 618,
      "we": 619,
      "Ġmet": 620,
      "rom": 621,
      "Ġpo": 622,
      "ca": 623,
      "ore": 624,
      "iss": 625,
      "min": 626,
      "Ġter": 627,
      "cz": 628,
      "Ġac": 629,
      "ano": 630,
      "Ġpre": 631,
      "Ġab": 632,
      "Ġ199": 633,
      "int": 634,
      "kt": 635,
      "ft": 636,
      "ement": 637,
      "go": 638,
      "Ġgr": 639,
      "ions": 640,
      "Ġpara": 641,
      "sch": 642,
      "ki": 643,
      "Ġne": 644,
      "ata": 645,
      "ht": 646,
      "co": 647,
      "Ġals": 648,
      "ph": 649,
      "ite": 650,
      "tem": 651,
      "Ġcont": 652,
      "cl": 653,
      "Ġinter": 654,
      "ni": 655,
      "Ġus": 656,
      "ĠĠ": 657,
      "ry": 658,
      "Ġ\"": 659,
      "ina": 660,
      "Ġres": 661,
      "ĠEn": 662,
      "Ġlas": 663,
      "Ġein": 664,
      "ante": 665,
      "ces": 666,
      "ista": 667,
      "Ġam": 668,
      "Ġcomo": 669,
      "Ġge": 670,
      "ĠdÃ©": 671,
      "ura": 672,
      "Ġnot": 673,
      "Ġ4": 674,
      "con": 675,
      "ĠCh": 676,
      "ĠTh": 677,
      "wa": 678,
      "ile": 679,
      "</": 680,
      "Ġtra": 681,
      "ĠLe": 682,
      "ins": 683,
      "fer": 684,
      "Ġvon": 685,
      "mo": 686,
      "Ġad": 687,
      "ĠMar": 688,
      "Ġare": 689,
      "ke": 690,
      "nie": 691,
      "Ġcons": 692,
      "ied": 693,
      "Ãº": 694,
      "math": 695,
      "ĠLa": 696,
      "aciÃ³n": 697,
      "Ġwe": 698,
      "Ġpos": 699,
      "ĠFran": 700,
      "Ãł": 701,
      "ÃŃa": 702,
      "pt": 703,
      "Ġ,": 704,
      "po": 705,
      "ados": 706,
      "Ġ.": 707,
      "ando": 708,
      "pos": 709,
      "ations": 710,
      "ence": 711,
      "ust": 712,
      "Ġdis": 713,
      "ign": 714,
      "ĠAr": 715,
      "Ã©e": 716,
      "ĠRe": 717,
      "ĠUn": 718,
      "ern": 719,
      "ks": 720,
      "Ġser": 721,
      "Ġmod": 722,
      "ide": 723,
      "lo": 724,
      "Ġsh": 725,
      "uro": 726,
      "be": 727,
      "Ġdans": 728,
      "ego": 729,
      "ical": 730,
      "Ġgen": 731,
      "ient": 732,
      "Ġsur": 733,
      "ional": 734,
      "port": 735,
      "Ġson": 736,
      "Ġdella": 737,
      "iet": 738,
      "Ġall": 739,
      "ice": 740,
      "one": 741,
      "Ã±": 742,
      "gen": 743,
      "ido": 744,
      "Ġden": 745,
      "Ġos": 746,
      "age": 747,
      "uss": 748,
      "20": 749,
      "erd": 750,
      "ual": 751,
      "Ġ5": 752,
      "ym": 753,
      "ann": 754,
      "les": 755,
      "je": 756,
      "ino": 757,
      "Ġcl": 758,
      "ong": 759,
      "Ġreg": 760,
      "Ġav": 761,
      "ivers": 762,
      "ÅĤa": 763,
      "uer": 764,
      "mente": 765,
      "vol": 766,
      "pa": 767,
      "ven": 768,
      "ific": 769,
      "âĢĿ": 770,
      "Ġ198": 771,
      "over": 772,
      "ijn": 773,
      "ari": 774,
      "Ġra": 775,
      "Ġfrom": 776,
      "ior": 777,
      "Ġrel": 778,
      "pro": 779,
      "ques": 780,
      "Ġdas": 781,
      "lic": 782,
      "iem": 783,
      "urs": 784,
      "amb": 785,
      "Ġcol": 786,
      "ĠrÃ©": 787,
      "Ġpres": 788,
      "yn": 789,
      "Ġune": 790,
      "ese": 791,
      "wo": 792,
      "Ġnel": 793,
      "her": 794,
      "aar": 795,
      "ische": 796,
      "rat": 797,
      "Ġman": 798,
      "ram": 799,
      "Ġmar": 800,
      "eder": 801,
      "ise": 802,
      "ron": 803,
      "ight": 804,
      "uch": 805,
      "use": 806,
      "icht": 807,
      "Äĩ": 808,
      "Ã©n": 809,
      "Ã©t": 810,
      "uc": 811,
      "act": 812,
      "Ġprim": 813,
      "ted": 814,
      "Ġpa": 815,
      "ction": 816,
      "ome": 817,
      "Ġentre": 818,
      "Ġaut": 819,
      "amente": 820,
      "of": 821,
      "rans": 822,
      "==": 823,
      "ase": 824,
      "Ġfran": 825,
      "vel": 826,
      "Ġ197": 827,
      "Ġco": 828,
      "ux": 829,
      "gr": 830,
      "ace": 831,
      "18": 832,
      "iste": 833,
      "ych": 834,
      "ors": 835,
      "..": 836,
      "Ã¼r": 837,
      "ken": 838,
      "Ġuma": 839,
      "ana": 840,
      "ras": 841,
      "Ġind": 842,
      "Ġele": 843,
      "ja": 844,
      "Ġcar": 845,
      "Ġ6": 846,
      "jÄħ": 847,
      "Ġword": 848,
      "Ġou": 849,
      "ha": 850,
      "oria": 851,
      "ons": 852,
      "tre": 853,
      "Ġpod": 854,
      "itu": 855,
      "bre": 856,
      "Ġ202": 857,
      "lich": 858,
      "itt": 859,
      "Ġact": 860,
      "âĢĵ": 861,
      "ĠÃ¨": 862,
      "Ġ17": 863,
      "Ġpe": 864,
      "iÃ": 865,
      "itÃ©": 866,
      "ert": 867,
      "ios": 868,
      "ave": 869,
      "va": 870,
      "ador": 871,
      "Ġdem": 872,
      "ero": 873,
      "ade": 874,
      "zen": 875,
      "Ġpour": 876,
      "Ġvoor": 877,
      "era": 878,
      "ident": 879,
      "ĠÂ«": 880,
      "Ġwy": 881,
      "par": 882,
      "Ġsol": 883,
      "Ġdos": 884,
      "Ġthis": 885,
      "ateg": 886,
      "form": 887,
      "µes": 888,
      "ĠsiÄĻ": 889,
      "Ġfo": 890,
      "Ġcor": 891,
      "ales": 892,
      "ĠSch": 893,
      "att": 894,
      "Ġart": 895,
      "Âł": 896,
      "Ġ194": 897,
      "ition": 898,
      "umb": 899,
      "rib": 900,
      "Ġsc": 901,
      "ĠPar": 902,
      "ple": 903,
      "iÄĻ": 904,
      "Ġ9": 905,
      "ativ": 906,
      "Ġdur": 907,
      "Ġmit": 908,
      "Ġtem": 909,
      "ita": 910,
      "ater": 911,
      "Ġ196": 912,
      "cess": 913,
      "oh": 914,
      "ida": 915,
      "Ġhis": 916,
      "ros": 917,
      "ischen": 918,
      "cht": 919,
      "Ġform": 920,
      "Ġ<": 921,
      "out": 922,
      "ren": 923,
      "ary": 924,
      "gan": 925,
      "]]": 926,
      "pres": 927,
      "Ġ7": 928,
      "ĠX": 929,
      "Ãµes": 930,
      "Ġsa": 931,
      "ett": 932,
      "elle": 933,
      "fin": 934,
      "Ġqui": 935,
      "ĠEl": 936,
      "Ġconst": 937,
      "Ġgro": 938,
      "Ġprodu": 939,
      "arz": 940,
      "iones": 941,
      "able": 942,
      "erv": 943,
      "cy": 944,
      "ĠAnd": 945,
      "ular": 946,
      "ĠâĢŀ": 947,
      "Ã¡s": 948,
      "ito": 949,
      "zm": 950,
      "ck": 951,
      "ati": 952,
      "Ġ15": 953,
      "nia": 954,
      "Ġcan": 955,
      "ĠPro": 956,
      "ho": 957,
      "ele": 958,
      "men": 959,
      "Ġwhich": 960,
      "ane": 961,
      "ciÃ³n": 962,
      "Ã³r": 963,
      "Ġ8": 964,
      "ÅĽci": 965,
      "ble": 966,
      "Ġlo": 967,
      "els": 968,
      "Ġag": 969,
      "fl": 970,
      "ance": 971,
      "ui": 972,
      "ger": 973,
      "atur": 974,
      "skie": 975,
      "Ġtrans": 976,
      "ku": 977,
      "Ġfil": 978,
      "Ġzijn": 979,
      "ame": 980,
      "ÃŁ": 981,
      "ĠVer": 982,
      "une": 983,
      "ono": 984,
      "ĠSe": 985,
      "aliz": 986,
      "ory": 987,
      "aÅĤ": 988,
      "por": 989,
      "ah": 990,
      "ose": 991,
      "ĠEs": 992,
      "âĢľ": 993,
      "aÃ§Ã£o": 994,
      "Ġ16": 995,
      "Ġass": 996,
      "vo": 997,
      "ĠBe": 998,
      "Ġzu": 999,
      "ige": 1000,
      "ĠCom": 1001,
      "Ġ).": 1002,
      "ska": 1003,
      "Ġint": 1004,
      "inci": 1005,
      "idade": 1006,
      "Ġ193": 1007,
      "ars": 1008,
      "adas": 1009,
      "ĠPr": 1010,
      "ali": 1011,
      "ret": 1012,
      "Ġfin": 1013,
      "Ġod": 1014,
      "Ġant": 1015,
      "Ġesp": 1016,
      "Ġsch": 1017,
      "Ġu": 1018,
      "ain": 1019,
      "icas": 1020,
      "rij": 1021,
      "Ġout": 1022,
      "ette": 1023,
      "Ġ195": 1024,
      "Ġpop": 1025,
      "zione": 1026,
      "Ġpers": 1027,
      "ole": 1028,
      "iter": 1029,
      "endo": 1030,
      "ji": 1031,
      "Ġnie": 1032,
      "Ġvers": 1033,
      "Ã¨re": 1034,
      "ĠIt": 1035,
      "ĠCon": 1036,
      "ime": 1037,
      "ĠY": 1038,
      "ric": 1039,
      "Ġmil": 1040,
      "Ġist": 1041,
      "Ġsec": 1042,
      "cul": 1043,
      "ated": 1044,
      "nik": 1045,
      "Ã©es": 1046,
      "Ã¢": 1047,
      "Ġvol": 1048,
      "Ġaf": 1049,
      "ederland": 1050,
      "Ġpolit": 1051,
      "ex": 1052,
      "Ġhave": 1053,
      "mi": 1054,
      "thumb": 1055,
      "esch": 1056,
      "Ã¡n": 1057,
      "Ġpub": 1058,
      "II": 1059,
      "ats": 1060,
      "ues": 1061,
      "ath": 1062,
      "Ġcent": 1063,
      "Ġmais": 1064,
      "ille": 1065,
      "Ġauf": 1066,
      "eld": 1067,
      "Ġ10": 1068,
      "Ġnon": 1069,
      "Ġover": 1070,
      "bl": 1071,
      "In": 1072,
      "10": 1073,
      "Ġaus": 1074,
      "ori": 1075,
      "Ã´": 1076,
      "Ġhist": 1077,
      "ew": 1078,
      "âĶ": 1079,
      "icos": 1080,
      "ismo": 1081,
      "ĠIl": 1082,
      "Ġdist": 1083,
      "âĶĢ": 1084,
      "cent": 1085,
      "Ġuit": 1086,
      "owe": 1087,
      "Ã©d": 1088,
      "Ġdat": 1089,
      "Ġwer": 1090,
      "Ġdiff": 1091,
      "elij": 1092,
      "ĠNederland": 1093,
      "ĠWe": 1094,
      "ora": 1095,
      "gl": 1096,
      "âĶĢâĶĢ": 1097,
      "ede": 1098,
      "Ġsoci": 1099,
      "ution": 1100,
      "igen": 1101,
      "ira": 1102,
      "alt": 1103,
      "Ġcz": 1104,
      "azione": 1105,
      "Ġcap": 1106,
      "sp": 1107,
      "Ġplus": 1108,
      "Ã©m": 1109,
      "ioni": 1110,
      "onn": 1111,
      "ko": 1112,
      "zie": 1113,
      "Ġmo": 1114,
      "erg": 1115,
      "iro": 1116,
      "com": 1117,
      "ÃŃs": 1118,
      "ÅĦski": 1119,
      "orm": 1120,
      "ix": 1121,
      "ĠHe": 1122,
      "Ġpel": 1123,
      "ĠQ": 1124,
      "unt": 1125,
      "ici": 1126,
      "Ġinv": 1127,
      "Ġmed": 1128,
      "ĠEr": 1129,
      "Ġsub": 1130,
      "Ġesc": 1131,
      "aj": 1132,
      "Ġcr": 1133,
      "Ġdell": 1134,
      "tern": 1135,
      "ÅĤy": 1136,
      "ÃŃt": 1137,
      "icz": 1138,
      "ĠEst": 1139,
      "ÅĤo": 1140,
      "Ġaan": 1141,
      "Ġdoor": 1142,
      "ational": 1143,
      "aria": 1144,
      "ĠGr": 1145,
      "Ġdal": 1146,
      "ense": 1147,
      "ally": 1148,
      "Ġmon": 1149,
      "Ġmin": 1150,
      "zi": 1151,
      "zo": 1152,
      "Ġ\\": 1153,
      "ute": 1154,
      "ument": 1155,
      "Ġprze": 1156,
      "aw": 1157,
      "ias": 1158,
      "br": 1159,
      "Ġseg": 1160,
      "its": 1161,
      "leden": 1162,
      "Ã§Ãµes": 1163,
      "ings": 1164,
      "af": 1165,
      "ĠÂ»": 1166,
      "amp": 1167,
      "uld": 1168,
      "ork": 1169,
      "Ġtot": 1170,
      "Ġprinci": 1171,
      "Ġwo": 1172,
      "Ġwar": 1173,
      "Ġhas": 1174,
      "ider": 1175,
      "nych": 1176,
      "ores": 1177,
      "La": 1178,
      "anto": 1179,
      "reg": 1180,
      "ĠfÃ¼r": 1181,
      "raf": 1182,
      "Ġoc": 1183,
      "ĠAmer": 1184,
      "ĠCar": 1185,
      "Ġup": 1186,
      "red": 1187,
      "ĠDie": 1188,
      "Ġcome": 1189,
      "the": 1190,
      "itÃł": 1191,
      "antes": 1192,
      "ĠAs": 1193,
      "Ġut": 1194,
      "Ġgener": 1195,
      "15": 1196,
      "ez": 1197,
      "ua": 1198,
      "overleden": 1199,
      "Ġpartic": 1200,
      "ola": 1201,
      "olo": 1202,
      "bert": 1203,
      "old": 1204,
      "Ġtro": 1205,
      "xt": 1206,
      "ek": 1207,
      "aut": 1208,
      "vent": 1209,
      "Ġ14": 1210,
      "Ġher": 1211,
      "ĠSp": 1212,
      "ther": 1213,
      "Ġ192": 1214,
      "ode": 1215,
      "ĠAm": 1216,
      "17": 1217,
      "enn": 1218,
      "Ġnum": 1219,
      "ep": 1220,
      "Ġpu": 1221,
      "ack": 1222,
      "Ġsob": 1223,
      "Ġdei": 1224,
      "orie": 1225,
      "Ġed": 1226,
      "ĠPol": 1227,
      "Ġ12": 1228,
      "ania": 1229,
      "Ã¤n": 1230,
      "Ġcomm": 1231,
      "Ãªn": 1232,
      "iques": 1233,
      "Ġfun": 1234,
      "Ã¨s": 1235,
      "als": 1236,
      "ism": 1237,
      "ario": 1238,
      "iano": 1239,
      "Ġhad": 1240,
      "ĠEuro": 1241,
      "Ġprov": 1242,
      "Ġcas": 1243,
      "iat": 1244,
      "uf": 1245,
      "ande": 1246,
      "'s": 1247,
      "Ġcal": 1248,
      "eren": 1249,
      "ami": 1250,
      "urg": 1251,
      "Ġposs": 1252,
      "Ġwur": 1253,
      "oll": 1254,
      "ĠÃ©t": 1255,
      "Ġprincip": 1256,
      "Ġbas": 1257,
      "Ġbet": 1258,
      "ages": 1259,
      "ton": 1260,
      "present": 1261,
      "iment": 1262,
      "ini": 1263,
      "ystem": 1264,
      "Ã²": 1265,
      "orn": 1266,
      "vers": 1267,
      "Ġsim": 1268,
      "own": 1269,
      "Ġthey": 1270,
      "Ã©g": 1271,
      "ict": 1272,
      "Ġinst": 1273,
      "16": 1274,
      "ish": 1275,
      "ĠRo": 1276,
      "ty": 1277,
      "ahr": 1278,
      "iche": 1279,
      "oss": 1280,
      "Ġpra": 1281,
      "Ġwere": 1282,
      "arch": 1283,
      "Ġparte": 1284,
      "ĠĠĠĠ": 1285,
      "bol": 1286,
      "Ġfa": 1287,
      "abil": 1288,
      "ner": 1289,
      "Ġph": 1290,
      "ingen": 1291,
      "esta": 1292,
      "ĠPa": 1293,
      "cis": 1294,
      "Ġone": 1295,
      "entes": 1296,
      "Ġbut": 1297,
      "Ġsich": 1298,
      "ivo": 1299,
      "Ġeine": 1300,
      "ungen": 1301,
      "Ġmen": 1302,
      "12": 1303,
      "ps": 1304,
      "rol": 1305,
      "uw": 1306,
      "Ġsont": 1307,
      "Å¼e": 1308,
      "14": 1309,
      "Ġloc": 1310,
      "Ġpow": 1311,
      "idos": 1312,
      "ler": 1313,
      "egen": 1314,
      "osta": 1315,
      "rie": 1316,
      "Ġsua": 1317,
      "Ġ13": 1318,
      "gram": 1319,
      "ona": 1320,
      "Ġom": 1321,
      "Ġval": 1322,
      "Ġont": 1323,
      "raph": 1324,
      "ild": 1325,
      "ÃŃn": 1326,
      "Ġnom": 1327,
      "Ġhim": 1328,
      "Ġtheir": 1329,
      "Ġ0": 1330,
      "ti": 1331,
      "nen": 1332,
      "ree": 1333,
      "ika": 1334,
      "lex": 1335,
      "Ġzw": 1336,
      ".,": 1337,
      "Ġorgan": 1338,
      "iva": 1339,
      "Ġalg": 1340,
      "jet": 1341,
      "ara": 1342,
      "ste": 1343,
      "ĠGe": 1344,
      "Â°": 1345,
      "Ġstud": 1346,
      "ĠOr": 1347,
      "ĠIs": 1348,
      "Ġfl": 1349,
      "Ġ=": 1350,
      "Ġprof": 1351,
      "ende": 1352,
      "led": 1353,
      "ycz": 1354,
      "ick": 1355,
      "000": 1356,
      "geb": 1357,
      "Ġrec": 1358,
      "Ġimport": 1359,
      "Ġcult": 1360,
      "ires": 1361,
      "ii": 1362,
      "Ġsem": 1363,
      "Ġ[[": 1364,
      "Ã§ais": 1365,
      "Ġpolski": 1366,
      "arg": 1367,
      "Ġavec": 1368,
      "plic": 1369,
      "13": 1370,
      "ĠMa": 1371,
      "Ġanal": 1372,
      "Å¼y": 1373,
      "Ġcu": 1374,
      "Ġfoi": 1375,
      "Ġalle": 1376,
      "aller": 1377,
      "Ġess": 1378,
      "Ġha": 1379,
      "Ġhab": 1380,
      "ima": 1381,
      "iÄħ": 1382,
      "imento": 1383,
      "zÄħ": 1384,
      "Ġtrad": 1385,
      "Ġho": 1386,
      "Ġ(âĢ": 1387,
      "Ġamer": 1388,
      "ĠâĢĶ": 1389,
      "Ġwie": 1390,
      "Ġcer": 1391,
      "este": 1392,
      "Ġkt": 1393,
      "Ġmat": 1394,
      "Ġkom": 1395,
      "Ġdelle": 1396,
      "Ġgo": 1397,
      "ced": 1398,
      "owy": 1399,
      "org": 1400,
      "ants": 1401,
      "ject": 1402,
      "ld": 1403,
      "ĠmÃ¡s": 1404,
      "ĠThis": 1405,
      "cie": 1406,
      "ĠNederlands": 1407,
      "oth": 1408,
      "tain": 1409,
      "rÃ³": 1410,
      "acional": 1411,
      "pu": 1412,
      "The": 1413,
      "Ã¼n": 1414,
      "odo": 1415,
      "Ġdiv": 1416,
      "ustr": 1417,
      "ĠfranÃ§ais": 1418,
      "iÅĤ": 1419,
      "wer": 1420,
      "ĠâĢľ": 1421,
      "chen": 1422,
      "pend": 1423,
      "yka": 1424,
      "Ġfam": 1425,
      "uel": 1426,
      "Ġatt": 1427,
      "lin": 1428,
      "rag": 1429,
      "ĠAb": 1430,
      "Ġpas": 1431,
      "agn": 1432,
      "ĠJoh": 1433,
      "Ġalso": 1434,
      "Ġincl": 1435,
      "ĠAd": 1436,
      "Ġquest": 1437,
      "elt": 1438,
      "Ġprzy": 1439,
      "pre": 1440,
      "Ġsobre": 1441,
      "Ġbo": 1442,
      "owa": 1443,
      "ben": 1444,
      "gi": 1445,
      "Ġwerden": 1446,
      "Ġwordt": 1447,
      "teur": 1448,
      "Ġdom": 1449,
      "Ã¡r": 1450,
      "ics": 1451,
      "Ġtak": 1452,
      "Ġgeb": 1453,
      "Ġao": 1454,
      "Ġbij": 1455,
      "cept": 1456,
      "Ġdire": 1457,
      "eth": 1458,
      "ategoria": 1459,
      "amento": 1460,
      "orte": 1461,
      "ous": 1462,
      "oci": 1463,
      "Ġca": 1464,
      "eng": 1465,
      "igh": 1466,
      "Ã©l": 1467,
      "Ġmay": 1468,
      "ible": 1469,
      "Ġthem": 1470,
      "Ġbl": 1471,
      "ald": 1472,
      "200": 1473,
      "Ġ;": 1474,
      "ĠktÃ³": 1475,
      "pen": 1476,
      "encia": 1477,
      "Ġutil": 1478,
      "ĠEm": 1479,
      "elf": 1480,
      "iÃ¹": 1481,
      "Ġdisc": 1482,
      "Ġjest": 1483,
      "Ġnov": 1484,
      "ĠÅĽ": 1485,
      "ital": 1486,
      "let": 1487,
      "Ġze": 1488,
      "Ġera": 1489,
      "Ġty": 1490,
      "Ġprz": 1491,
      "ĠPh": 1492,
      "yst": 1493,
      "Â»": 1494,
      "Ġjed": 1495,
      "Ġthere": 1496,
      "Ġalla": 1497,
      "anie": 1498,
      "ament": 1499,
      "ature": 1500,
      "ĠBr": 1501,
      "zw": 1502,
      "Ġconf": 1503,
      "Ġins": 1504,
      "11": 1505,
      "Ã¡t": 1506,
      "Ġpass": 1507,
      "ruct": 1508,
      "Ġpresent": 1509,
      "ures": 1510,
      "ĠpiÃ¹": 1511,
      "pect": 1512,
      "Ġwill": 1513,
      "rac": 1514,
      "elijk": 1515,
      "Ġport": 1516,
      "Ġdesc": 1517,
      "esso": 1518,
      "paÃ±": 1519,
      "Ġ(âĢł": 1520,
      "Ġaux": 1521,
      "Ã©rica": 1522,
      "vis": 1523,
      "Ġfe": 1524,
      "dz": 1525,
      "Ġwerd": 1526,
      "Ġmu": 1527,
      "owie": 1528,
      "Ġleg": 1529,
      "Ġsign": 1530,
      "iu": 1531,
      "Ġspec": 1532,
      "Ã©c": 1533,
      "ĠQu": 1534,
      "aux": 1535,
      "Ġlang": 1536,
      "emb": 1537,
      "ative": 1538,
      "Ġsul": 1539,
      "omb": 1540,
      "Ġce": 1541,
      "ala": 1542,
      "karz": 1543,
      "An": 1544,
      "Ġtamb": 1545,
      "unic": 1546,
      "almente": 1547,
      "ĠLes": 1548,
      "Ġpat": 1549,
      "press": 1550,
      "ene": 1551,
      "nej": 1552,
      "ĠTe": 1553,
      "lie": 1554,
      "met": 1555,
      "val": 1556,
      "cer": 1557,
      "En": 1558,
      "ĠIS": 1559,
      "Ġbis": 1560,
      "ungs": 1561,
      "imo": 1562,
      "ĠÅ": 1563,
      "Ġyou": 1564,
      "Ġacc": 1565,
      "ĠÃ¼": 1566,
      "ird": 1567,
      "Ġresult": 1568,
      "lag": 1569,
      "ĠÃ¡": 1570,
      "any": 1571,
      "Ġintern": 1572,
      "fic": 1573,
      "ĠII": 1574,
      "ms": 1575,
      "Ġfir": 1576,
      "conom": 1577,
      "Ġmus": 1578,
      "Ġeff": 1579,
      "ely": 1580,
      "Ġkon": 1581,
      "iene": 1582,
      "Ġdec": 1583,
      "Ġvis": 1584,
      "pon": 1585,
      "Ġwurde": 1586,
      "De": 1587,
      "ĠFor": 1588,
      "ates": 1589,
      "etz": 1590,
      "Ġ(Â°": 1591,
      "mall": 1592,
      "ula": 1593,
      "alis": 1594,
      "Ġ190": 1595,
      "Ġinc": 1596,
      "ws": 1597,
      "Ġauch": 1598,
      "Ġobs": 1599,
      "skiego": 1600,
      "leg": 1601,
      "Ġconsider": 1602,
      "Ġten": 1603,
      "Al": 1604,
      "ĠPl": 1605,
      "ium": 1606,
      "Ġbel": 1607,
      "Ġext": 1608,
      "sub": 1609,
      "Ġsind": 1610,
      "ator": 1611,
      "ines": 1612,
      "ÅĽÄĩ": 1613,
      "aft": 1614,
      "rop": 1615,
      "[[": 1616,
      "Ã§a": 1617,
      "Ġdefin": 1618,
      "Ġrad": 1619,
      "ĠBer": 1620,
      "ili": 1621,
      "czy": 1622,
      "Ġameryka": 1623,
      "iaÅĤ": 1624,
      "ÅĤad": 1625,
      "Ġcre": 1626,
      "Ġterrit": 1627,
      "sup": 1628,
      "gel": 1629,
      "Ġsus": 1630,
      "ena": 1631,
      "50": 1632,
      "ĠBel": 1633,
      "ink": 1634,
      "ral": 1635,
      "esse": 1636,
      "Ġ'": 1637,
      "Ġmy": 1638,
      "bo": 1639,
      "ĠUnivers": 1640,
      "ĠNo": 1641,
      "fe": 1642,
      "fr": 1643,
      "Ġcomme": 1644,
      "Ġhum": 1645,
      "Ġpap": 1646,
      "duc": 1647,
      "Ã¤t": 1648,
      "enza": 1649,
      "Ãªncia": 1650,
      "ĠpolÃŃt": 1651,
      "hen": 1652,
      "Ġord": 1653,
      "Ġmas": 1654,
      "ĠpaÃŃs": 1655,
      "Ġcond": 1656,
      "ĠRom": 1657,
      "etb": 1658,
      "now": 1659,
      "ĠJe": 1660,
      "Ġsono": 1661,
      "yj": 1662,
      "Ġtwo": 1663,
      "lt": 1664,
      "len": 1665,
      "Ġlat": 1666,
      "idades": 1667,
      "da": 1668,
      "Ġclass": 1669,
      "Ġonder": 1670,
      "ĠÃī": 1671,
      "ĠIm": 1672,
      "Ġ%": 1673,
      "Ġits": 1674,
      "BN": 1675,
      "Ġestado": 1676,
      "Le": 1677,
      "pub": 1678,
      "ĠSan": 1679,
      "Ġenc": 1680,
      "px": 1681,
      "Ġprzez": 1682,
      "uto": 1683,
      "ĠEd": 1684,
      "Ġsuper": 1685,
      "Ġpot": 1686,
      "Ġje": 1687,
      "ĠChr": 1688,
      "iej": 1689,
      "col": 1690,
      "plo": 1691,
      "Ġ/": 1692,
      "ĠBar": 1693,
      "aciones": 1694,
      "uk": 1695,
      "Ġgra": 1696,
      "Ġpublic": 1697,
      "ĠHer": 1698,
      "Ġpolity": 1699,
      "|[[": 1700,
      "Ġke": 1701,
      "oro": 1702,
      "Ġhom": 1703,
      "by": 1704,
      "Ġorig": 1705,
      "ĠNe": 1706,
      "ĠISBN": 1707,
      "Ġset": 1708,
      "Un": 1709,
      "cio": 1710,
      "Ġdz": 1711,
      "Ġequ": 1712,
      "mar": 1713,
      "Ġsystem": 1714,
      "Ġguer": 1715,
      "Ġdivers": 1716,
      "velop": 1717,
      "ĠnÃ£o": 1718,
      "undo": 1719,
      "mes": 1720,
      "Ġpla": 1721,
      "Ġital": 1722,
      "Ġworden": 1723,
      "ĠGu": 1724,
      "Ã³l": 1725,
      "Ġmodel": 1726,
      "Ġwaar": 1727,
      "Ġye": 1728,
      "Ġris": 1729,
      "Ġcontin": 1730,
      "ude": 1731,
      "eta": 1732,
      "Ġprocess": 1733,
      "Ã©ri": 1734,
      "Ġfr": 1735,
      "Ġjak": 1736,
      "ĠJahr": 1737,
      "Ġoper": 1738,
      "put": 1739,
      "inter": 1740,
      "Ġnach": 1741,
      "ts": 1742,
      "Ġproble": 1743,
      "Ġinto": 1744,
      "ĠReg": 1745,
      "ĠÃ¼ber": 1746,
      "ĠsÃ£o": 1747,
      "Ġdurch": 1748,
      "ember": 1749,
      "Ġbar": 1750,
      "bar": 1751,
      "Ġ189": 1752,
      "Ġfu": 1753,
      "chn": 1754,
      "ker": 1755,
      "Ġsam": 1756,
      "Ġsk": 1757,
      "iana": 1758,
      "eter": 1759,
      "mier": 1760,
      "Ġsein": 1761,
      "Ġserv": 1762,
      "Ġok": 1763,
      "tt": 1764,
      "Ġfut": 1765,
      "berg": 1766,
      "ĠAmerika": 1767,
      "Ġvoetb": 1768,
      "Ġbeg": 1769,
      "Ġ30": 1770,
      "ones": 1771,
      "ĠGer": 1772,
      "Ġdest": 1773,
      "eme": 1774,
      "Ġsz": 1775,
      "wie": 1776,
      "ween": 1777,
      "Ġsin": 1778,
      "âĶĢâĶĢâĶĢâĶĢ": 1779,
      "78": 1780,
      "Ġ11": 1781,
      "ella": 1782,
      "Ġbec": 1783,
      "las": 1784,
      "ius": 1785,
      "ove": 1786,
      "199": 1787,
      "Ġ25": 1788,
      "Åº": 1789,
      "Ġrelig": 1790,
      "urn": 1791,
      "Ġthese": 1792,
      "kow": 1793,
      "Ġshall": 1794,
      "Ġli": 1795,
      "\",": 1796,
      "Ġconc": 1797,
      "ensch": 1798,
      "nego": 1799,
      "ĠBo": 1800,
      "alia": 1801,
      "Ġcir": 1802,
      "ĠZe": 1803,
      "van": 1804,
      "uur": 1805,
      "ster": 1806,
      "ours": 1807,
      "icle": 1808,
      "Ã¶r": 1809,
      "Ġdan": 1810,
      "ugh": 1811,
      "Ġfig": 1812,
      "Ġoder": 1813,
      "oug": 1814,
      "ĠPer": 1815,
      "Ġother": 1816,
      "lio": 1817,
      "ople": 1818,
      "Ġzur": 1819,
      "ss": 1820,
      "Ã³g": 1821,
      "Ġ==": 1822,
      "ike": 1823,
      "Ġpopul": 1824,
      "ijd": 1825,
      "Ġforma": 1826,
      "ĠMon": 1827,
      "oz": 1828,
      "ule": 1829,
      "Ġmore": 1830,
      "ello": 1831,
      "Ġprogram": 1832,
      "ĠCol": 1833,
      "Ã¢n": 1834,
      "row": 1835,
      "cias": 1836,
      "ares": 1837,
      "ake": 1838,
      "Ġespec": 1839,
      "stand": 1840,
      "Ġstat": 1841,
      "Ġhand": 1842,
      "sten": 1843,
      "Ġgl": 1844,
      "imi": 1845,
      "iÃ«": 1846,
      "ĠSant": 1847,
      "Ġprop": 1848,
      "och": 1849,
      "yl": 1850,
      "yd": 1851,
      "Ġif": 1852,
      "anz": 1853,
      "Ġrepresent": 1854,
      "\".": 1855,
      "Ġident": 1856,
      "Ġeiner": 1857,
      "jÄħc": 1858,
      "Ġbr": 1859,
      "Ġrap": 1860,
      "iam": 1861,
      "bor": 1862,
      "Ġsome": 1863,
      "Ġmot": 1864,
      "iert": 1865,
      "Ġwhen": 1866,
      "gent": 1867,
      "Ġhij": 1868,
      "ĠFl": 1869,
      "Ġsecond": 1870,
      "jo": 1871,
      "ume": 1872,
      "izz": 1873,
      "ba": 1874,
      "ĠHet": 1875,
      "iti": 1876,
      "):": 1877,
      "minist": 1878,
      "ĠdÃ©c": 1879,
      "Ġtre": 1880,
      "lia": 1881,
      "osa": 1882,
      "Ġvor": 1883,
      "Ġbetween": 1884,
      "ock": 1885,
      "Ġook": 1886,
      "Ġbei": 1887,
      "Ġappro": 1888,
      "oph": 1889,
      "erste": 1890,
      "acter": 1891,
      "Ġfirst": 1892,
      "Ġelement": 1893,
      "ĠNew": 1894,
      "Ġanche": 1895,
      "Ġtime": 1896,
      "Ġnicht": 1897,
      "ĠInd": 1898,
      "ĠEx": 1899,
      "Ġfilm": 1900,
      "Ġur": 1901,
      "Ġeuro": 1902,
      "mini": 1903,
      "Ġ24": 1904,
      "Ġcel": 1905,
      "30": 1906,
      "ĠJohn": 1907,
      "Ġdon": 1908,
      "Ġperi": 1909,
      "Ġtod": 1910,
      "fore": 1911,
      "yt": 1912,
      "Ġrest": 1913,
      "ences": 1914,
      "enne": 1915,
      "Ġnella": 1916,
      "ktor": 1917,
      "Ġqual": 1918,
      "Ġmol": 1919,
      "Ġlong": 1920,
      "ural": 1921,
      "Ġcam": 1922,
      "ĠLu": 1923,
      "utsch": 1924,
      "Ġsuch": 1925,
      "ĠSa": 1926,
      "Ġ&": 1927,
      "Ġsitu": 1928,
      "Ġniet": 1929,
      "ents": 1930,
      "Ġstr": 1931,
      "ank": 1932,
      "Ġeste": 1933,
      "Ġalt": 1934,
      "oor": 1935,
      "aten": 1936,
      "Ġpolityk": 1937,
      "ĠCl": 1938,
      "omen": 1939,
      "ĠprÃ©s": 1940,
      "ĠpiÅĤ": 1941,
      "ows": 1942,
      "Ġfranc": 1943,
      "ava": 1944,
      "Ġide": 1945,
      "Ġ188": 1946,
      "ĠFrance": 1947,
      "ologie": 1948,
      "Ġcompos": 1949,
      "Ġsocial": 1950,
      "erc": 1951,
      "ĠMan": 1952,
      "ges": 1953,
      "Ġmes": 1954,
      "ĠMe": 1955,
      "ott": 1956,
      "lect": 1957,
      "Ġbeen": 1958,
      "Ġsup": 1959,
      "25": 1960,
      "ĠTr": 1961,
      "isation": 1962,
      "los": 1963,
      "unto": 1964,
      "Ġdeg": 1965,
      "arm": 1966,
      "Ġsuc": 1967,
      "Ġmov": 1968,
      "Ġroku": 1969,
      "Ġconstru": 1970,
      "istema": 1971,
      "Ġret": 1972,
      "ĠSh": 1973,
      "Ġdurante": 1974,
      "Ġgrup": 1975,
      "ograf": 1976,
      "ities": 1977,
      "Ġperm": 1978,
      "nym": 1979,
      "Ã¯": 1980,
      "ĠSte": 1981,
      "sta": 1982,
      "OR": 1983,
      "Ġdiffer": 1984,
      "24": 1985,
      "ategorie": 1986,
      "Ġste": 1987,
      "iol": 1988,
      "23": 1989,
      "heid": 1990,
      "Ġcos": 1991,
      "iden": 1992,
      "ois": 1993,
      "Ġgre": 1994,
      "flu": 1995,
      "gio": 1996,
      "Ġsie": 1997,
      "Ġzosta": 1998,
      "istas": 1999,
      "Ġland": 2000,
      "Ġestud": 2001,
      "Ġlog": 2002,
      "Ġgrand": 2003,
      "wor": 2004,
      "Ġthen": 2005,
      "Ġwird": 2006,
      "Ġbre": 2007,
      "iew": 2008,
      "Ã¤r": 2009,
      "Ġperson": 2010,
      "ites": 2011,
      "Ġexp": 2012,
      "ves": 2013,
      "Ġpropos": 2014,
      ".]]": 2015,
      "asc": 2016,
      "Ġcomun": 2017,
      "Ġocc": 2018,
      "Ar": 2019,
      "unid": 2020,
      "Ġroz": 2021,
      "Ã³ÅĤ": 2022,
      "xim": 2023,
      "lem": 2024,
      "Ġsaid": 2025,
      "itions": 2026,
      "ican": 2027,
      "ĠKon": 2028,
      "enden": 2029,
      "acz": 2030,
      "rze": 2031,
      "isme": 2032,
      "Ġann": 2033,
      "Ġbrit": 2034,
      "ĠOs": 2035,
      "arn": 2036,
      "Ġgover": 2037,
      "idas": 2038,
      "iten": 2039,
      "ĠJan": 2040,
      "ela": 2041,
      "small": 2042,
      "Ġgli": 2043,
      "hal": 2044,
      "Ã³s": 2045,
      "itar": 2046,
      "Ġimp": 2047,
      "niej": 2048,
      "lichen": 2049,
      "jÄĻ": 2050,
      "Ġnatur": 2051,
      "ÃŃst": 2052,
      "Ġunto": 2053,
      "Ġcin": 2054,
      "rab": 2055,
      "ĠAmerikaans": 2056,
      "ĠaÃ±": 2057,
      "Ã«": 2058,
      "ĠAp": 2059,
      "ĠTer": 2060,
      "Ġshe": 2061,
      "ield": 2062,
      "oren": 2063,
      "atie": 2064,
      "nÄħ": 2065,
      "ĠKar": 2066,
      "Ġexist": 2067,
      "ĠEin": 2068,
      "Ġabout": 2069,
      "Ġ23": 2070,
      "Ġpeople": 2071,
      "ĠPaul": 2072,
      "ĠOn": 2073,
      "ĠDer": 2074,
      "Ġci": 2075,
      "rod": 2076,
      "elles": 2077,
      "Ġsel": 2078,
      "Ãªs": 2079,
      "Ġplan": 2080,
      "ĠIntern": 2081,
      "Ġlim": 2082,
      "Ġmost": 2083,
      "ange": 2084,
      "El": 2085,
      "Ġkw": 2086,
      "Ġnaar": 2087,
      "enti": 2088,
      "Ġmag": 2089,
      "yw": 2090,
      "ĠgÃ©n": 2091,
      "adt": 2092,
      "Ġliter": 2093,
      "Ġlet": 2094,
      "ĠMed": 2095,
      "unidense": 2096,
      "Ġ2000": 2097,
      "Ġsci": 2098,
      "ĠFr": 2099,
      "||": 2100,
      "Ġinf": 2101,
      "inal": 2102,
      "Il": 2103,
      "Ġmor": 2104,
      "ener": 2105,
      "atal": 2106,
      "Ġzo": 2107,
      "aram": 2108,
      "ĠFil": 2109,
      "Ã¶n": 2110,
      "Ġev": 2111,
      "adores": 2112,
      "Ġrealiz": 2113,
      "Ġ28": 2114,
      "Ġthan": 2115,
      "Ġgrande": 2116,
      "Ġdue": 2117,
      "ĠpiÅĤkarz": 2118,
      "ĠamÃ©rica": 2119,
      "ograph": 2120,
      "owej": 2121,
      "Ġot": 2122,
      "Ġgroup": 2123,
      "Ġref": 2124,
      "lam": 2125,
      "Ġoraz": 2126,
      "Ġamb": 2127,
      "right": 2128,
      "ward": 2129,
      "atura": 2130,
      "Ġ22": 2131,
      "Ġonly": 2132,
      "Ġdev": 2133,
      "idente": 2134,
      "hl": 2135,
      "ister": 2136,
      "cher": 2137,
      "Ġunder": 2138,
      "Ġger": 2139,
      "illa": 2140,
      "Ġ26": 2141,
      "Ġdeux": 2142,
      "Ġwhere": 2143,
      "zenia": 2144,
      "ĠamerykaÅĦski": 2145,
      "uv": 2146,
      "iÃ§Ã£o": 2147,
      "aron": 2148,
      "ĠBl": 2149,
      "ga": 2150,
      "Ġve": 2151,
      "Ġexper": 2152,
      "Ġaff": 2153,
      "anc": 2154,
      "ĠHa": 2155,
      "ology": 2156,
      "Ġza": 2157,
      "inn": 2158,
      "Ġvari": 2159,
      "ĠAt": 2160,
      "lement": 2161,
      "hn": 2162,
      "Ġinform": 2163,
      "ĠJo": 2164,
      "stell": 2165,
      "Ġtext": 2166,
      "Ġcontr": 2167,
      "ĠPo": 2168,
      "ĠÃº": 2169,
      "Ġneg": 2170,
      "Ġwork": 2171,
      "uz": 2172,
      "liche": 2173,
      "hed": 2174,
      "ils": 2175,
      "isto": 2176,
      "Ġused": 2177,
      "Ġfond": 2178,
      "Ġsom": 2179,
      "oli": 2180,
      "tes": 2181,
      "Ġses": 2182,
      "Ġ27": 2183,
      "ijk": 2184,
      "med": 2185,
      "ival": 2186,
      "ĠCent": 2187,
      "inc": 2188,
      "Ġprime": 2189,
      "Ġpartir": 2190,
      "ibil": 2191,
      "Ġsoc": 2192,
      "culo": 2193,
      "Ġmult": 2194,
      "olf": 2195,
      "orld": 2196,
      "anti": 2197,
      "22": 2198,
      "Ãī": 2199,
      "ĠBrit": 2200,
      "Ġconte": 2201,
      "iego": 2202,
      "ĠPort": 2203,
      "Ġsistema": 2204,
      "Ġnew": 2205,
      "Ġprote": 2206,
      "Ġdim": 2207,
      "blica": 2208,
      "Ġmass": 2209,
      "rice": 2210,
      "sen": 2211,
      "iven": 2212,
      "Ġexam": 2213,
      "ony": 2214,
      "iale": 2215,
      "omin": 2216,
      "Ġzum": 2217,
      "uito": 2218,
      "Ġ2010": 2219,
      "Ġunivers": 2220,
      "onom": 2221,
      "ĠBelg": 2222,
      "estig": 2223,
      "Ã®": 2224,
      "Ġnow": 2225,
      "ingu": 2226,
      "str": 2227,
      "Ġarch": 2228,
      "raz": 2229,
      "Ġroman": 2230,
      "acji": 2231,
      "Ġ186": 2232,
      "Ġ21": 2233,
      "Ġbase": 2234,
      "Ġces": 2235,
      "aire": 2236,
      "ives": 2237,
      "Ġpoint": 2238,
      "Ġsuo": 2239,
      "part": 2240,
      "ourn": 2241,
      "ÅĤaw": 2242,
      "Ġnu": 2243,
      "Ġmater": 2244,
      "Ġ2007": 2245,
      "Ġta": 2246,
      "rich": 2247,
      "ĠChar": 2248,
      "Ġtut": 2249,
      "vir": 2250,
      "schaft": 2251,
      "jp": 2252,
      "iÃ©n": 2253,
      "Ġmaior": 2254,
      "etto": 2255,
      "Ġfue": 2256,
      "Ġdies": 2257,
      "Ã¼hr": 2258,
      "Ġseu": 2259,
      "Ġcomb": 2260,
      "termin": 2261,
      "ĠMin": 2262,
      "bal": 2263,
      "Ġvoetballer": 2264,
      "ya": 2265,
      "Ġarticle": 2266,
      "Ġcur": 2267,
      "yp": 2268,
      "40": 2269,
      "Ġaktor": 2270,
      "Ġ2006": 2271,
      "ĠChrist": 2272,
      "Ġfre": 2273,
      "Ġexpl": 2274,
      "Ġ+": 2275,
      "off": 2276,
      "ĠespaÃ±": 2277,
      "volution": 2278,
      "ets": 2279,
      "Ġcaus": 2280,
      "SA": 2281,
      "Ġobserv": 2282,
      "mann": 2283,
      "Ġany": 2284,
      "Ġog": 2285,
      "uli": 2286,
      "ÅĦska": 2287,
      "Ġpela": 2288,
      "ama": 2289,
      "Ġdr": 2290,
      "ologia": 2291,
      "alement": 2292,
      "car": 2293,
      "Ġ29": 2294,
      "Ġtip": 2295,
      "ĠDes": 2296,
      "Ġdesde": 2297,
      "Ġhat": 2298,
      "iec": 2299,
      "Ġlib": 2300,
      "21": 2301,
      "Ã¡ri": 2302,
      "Ġchar": 2303,
      "log": 2304,
      "raw": 2305,
      "Ġcui": 2306,
      "ley": 2307,
      "ece": 2308,
      "yk": 2309,
      "ĠsÃ©": 2310,
      "ĠAf": 2311,
      "Ġwoj": 2312,
      "ĠtambÃ©m": 2313,
      "enta": 2314,
      "198": 2315,
      "ĠCo": 2316,
      "skiej": 2317,
      "ender": 2318,
      "Ã¡rio": 2319,
      "Ã¨me": 2320,
      "Ġpelo": 2321,
      "ova": 2322,
      "Ġpier": 2323,
      "ĠPal": 2324,
      "cle": 2325,
      "Ġ2008": 2326,
      "erk": 2327,
      "uid": 2328,
      "ionale": 2329,
      "amer": 2330,
      "Ġpages": 2331,
      "Ġcrit": 2332,
      "ĠmÃ©d": 2333,
      "pio": 2334,
      "ades": 2335,
      "pi": 2336,
      "itÃ©s": 2337,
      "Ġbest": 2338,
      "Ġfund": 2339,
      "ĠDuit": 2340,
      "ĠJean": 2341,
      "Ġvia": 2342,
      "bolista": 2343,
      "Ġang": 2344,
      "ĠrÃ©g": 2345,
      "uni": 2346,
      "70": 2347,
      "Ġuse": 2348,
      "burg": 2349,
      "Ġliv": 2350,
      "Ġdata": 2351,
      "ĠCal": 2352,
      "rough": 2353,
      "Ġnombre": 2354,
      "ĠAus": 2355,
      "ribu": 2356,
      "iger": 2357,
      "itor": 2358,
      "do": 2359,
      "ĠCor": 2360,
      "Ġcette": 2361,
      "Ġresp": 2362,
      "Ġcost": 2363,
      "rodu": 2364,
      "ily": 2365,
      "ĠSal": 2366,
      "26": 2367,
      "Ġir": 2368,
      "Ġlar": 2369,
      "ander": 2370,
      "Ġkm": 2371,
      "elijke": 2372,
      "Die": 2373,
      "ices": 2374,
      "Ġfra": 2375,
      "Ġwho": 2376,
      "ĠAnt": 2377,
      "ĠNa": 2378,
      "itz": 2379,
      "Ġniem": 2380,
      "Ġunter": 2381,
      "akt": 2382,
      "ript": 2383,
      "ury": 2384,
      "very": 2385,
      "Ġdegli": 2386,
      "ife": 2387,
      "jpg": 2388,
      "erw": 2389,
      "Categoria": 2390,
      "Ġsal": 2391,
      "Ġfac": 2392,
      "ments": 2393,
      "mp": 2394,
      "Ġdifer": 2395,
      "utt": 2396,
      "oud": 2397,
      "ĠFrank": 2398,
      "Ġnos": 2399,
      "Ġdifferent": 2400,
      "ĠÅ¼e": 2401,
      "Ġeconom": 2402,
      "noÅĽci": 2403,
      "Ġotr": 2404,
      "Ġlie": 2405,
      "Ã¨res": 2406,
      "app": 2407,
      "ĠPre": 2408,
      "cc": 2409,
      "ĠPor": 2410,
      "ĠMil": 2411,
      "adem": 2412,
      "Ġpal": 2413,
      "Ġ2011": 2414,
      "ĠFre": 2415,
      "ouver": 2416,
      "Ġprot": 2417,
      "Ã¬": 2418,
      "Ġnec": 2419,
      "Ġ2013": 2420,
      "ersch": 2421,
      "ani": 2422,
      "orio": 2423,
      "Ġestadounidense": 2424,
      "Ġanalys": 2425,
      "rav": 2426,
      "Ġvez": 2427,
      "ĠVal": 2428,
      "Ġ2009": 2429,
      "ĠGod": 2430,
      "ĠGro": 2431,
      "eros": 2432,
      "Ġ$": 2433,
      "lis": 2434,
      "iciÃ³n": 2435,
      "Ġdalla": 2436,
      "Ġstruct": 2437,
      "Ġ2005": 2438,
      "ames": 2439,
      "ORD": 2440,
      "Ġafter": 2441,
      "Ãªme": 2442,
      "imes": 2443,
      "ĠWh": 2444,
      "oto": 2445,
      "Ġzich": 2446,
      "Ġnar": 2447,
      "Ġescrit": 2448,
      "szy": 2449,
      "ĠDav": 2450,
      "ĠCan": 2451,
      "oca": 2452,
      "Ġinte": 2453,
      "Ġcontra": 2454,
      "vi": 2455,
      "ize": 2456,
      "Ã©rie": 2457,
      "ĠÃ©tÃ©": 2458,
      "Ġdoc": 2459,
      "Ġ)": 2460,
      "cu": 2461,
      "ĠEurope": 2462,
      "Ġmal": 2463,
      "ifica": 2464,
      "ivid": 2465,
      "ichte": 2466,
      "idd": 2467,
      "Ġautor": 2468,
      "Ġmaar": 2469,
      "Ãºn": 2470,
      "Ġrem": 2471,
      "ĠWill": 2472,
      "Ġdass": 2473,
      "ĠJap": 2474,
      "Ġ2012": 2475,
      "Ġalc": 2476,
      "ides": 2477,
      "chod": 2478,
      "Ġenerg": 2479,
      "Ġ2001": 2480,
      "isp": 2481,
      "Ġps": 2482,
      "Ġrecon": 2483,
      "ĠTo": 2484,
      "Ġguerra": 2485,
      "Ġour": 2486,
      "cial": 2487,
      "rig": 2488,
      "Ġpost": 2489,
      "ather": 2490,
      "anda": 2491,
      "ĠHist": 2492,
      "Ġpolitique": 2493,
      "eds": 2494,
      "ĠMart": 2495,
      "ĠParis": 2496,
      "cji": 2497,
      "28": 2498,
      "Ġutiliz": 2499,
      "arka": 2500,
      "pol": 2501,
      "eft": 2502,
      "Ġeinem": 2503,
      "ĠSo": 2504,
      "Ġsignific": 2505,
      "Ġactiv": 2506,
      "=\"": 2507,
      "ark": 2508,
      ">\\": 2509,
      "isse": 2510,
      "Ġdro": 2511,
      "Ġinflu": 2512,
      "icus": 2513,
      "Ġsym": 2514,
      "âĢĶ": 2515,
      "Ġshow": 2516,
      "iver": 2517,
      "imm": 2518,
      "Ġwould": 2519,
      "Ġorganiz": 2520,
      "tu": 2521,
      "ienne": 2522,
      "ĠLos": 2523,
      "Ġmis": 2524,
      "so": 2525,
      "Ġinde": 2526,
      "ĠMo": 2527,
      "Ġred": 2528,
      "esto": 2529,
      "ĠestÃ¡": 2530,
      "Ġleur": 2531,
      "enz": 2532,
      "Ġesta": 2533,
      "Ġsig": 2534,
      "sh": 2535,
      "Ġmade": 2536,
      "omas": 2537,
      "ĠnÃº": 2538,
      "ause": 2539,
      "zu": 2540,
      "St": 2541,
      "Ġfer": 2542,
      "ĠLORD": 2543,
      "ited": 2544,
      "Ġgi": 2545,
      "ilos": 2546,
      "Ġpremier": 2547,
      "owych": 2548,
      "agen": 2549,
      "iera": 2550,
      "ission": 2551,
      "Ġapr": 2552,
      "Ġsolo": 2553,
      "Ġmond": 2554,
      "Ġkan": 2555,
      "Ġnor": 2556,
      "ĠÃ©c": 2557,
      "Ġprima": 2558,
      "ection": 2559,
      "abe": 2560,
      "Ġmom": 2561,
      "ĠprÃ©": 2562,
      "Ġren": 2563,
      "Ġanim": 2564,
      "Ġmuch": 2565,
      "Ġwaren": 2566,
      "ouv": 2567,
      "Ġcant": 2568,
      "29": 2569,
      "ief": 2570,
      "ĠÅĽw": 2571,
      ".)": 2572,
      "Ġdeze": 2573,
      "ince": 2574,
      "ugust": 2575,
      "ĠHen": 2576,
      "Ġquant": 2577,
      "27": 2578,
      "sz": 2579,
      "ĠGre": 2580,
      "stit": 2581,
      "ativa": 2582,
      "gu": 2583,
      "Ġknow": 2584,
      "Kategoria": 2585,
      "ating": 2586,
      "ĠLand": 2587,
      "imiento": 2588,
      "onder": 2589,
      "Ġgran": 2590,
      "Ġsta": 2591,
      "Ġagain": 2592,
      "eden": 2593,
      "ĠPart": 2594,
      "ÅĤos": 2595,
      "insi": 2596,
      "Ġbu": 2597,
      "ovo": 2598,
      "ait": 2599,
      "Ġadd": 2600,
      "mas": 2601,
      "rent": 2602,
      "olic": 2603,
      "Ġ2021": 2604,
      "chter": 2605,
      "son": 2606,
      "ness": 2607,
      "Ġsent": 2608,
      "icial": 2609,
      "omet": 2610,
      "ements": 2611,
      "hel": 2612,
      "ĠRuss": 2613,
      "Ġend": 2614,
      "gar": 2615,
      "Ġbes": 2616,
      "Ġoff": 2617,
      "Ġbro": 2618,
      "istem": 2619,
      "Ġhigh": 2620,
      "kÃ³w": 2621,
      "ote": 2622,
      "Ġfoll": 2623,
      "adr": 2624,
      "Ġ1990": 2625,
      "ull": 2626,
      "Ġagr": 2627,
      "60": 2628,
      "Ġnas": 2629,
      "ham": 2630,
      "Ġobjet": 2631,
      "Ġversch": 2632,
      "oÅĽci": 2633,
      "Ġ2004": 2634,
      "Ġ1999": 2635,
      "Ġkun": 2636,
      "ĠMor": 2637,
      "Ġuno": 2638,
      "ĠktÃ³ry": 2639,
      "agem": 2640,
      "Ġandere": 2641,
      "Ġstudy": 2642,
      "Ġlocal": 2643,
      "ĠsÄħ": 2644,
      "Ġvaria": 2645,
      "aba": 2646,
      "rea": 2647,
      "rÃ©": 2648,
      "Ġparticular": 2649,
      "euw": 2650,
      "pel": 2651,
      "Ġline": 2652,
      "chi": 2653,
      "mos": 2654,
      "orÃŃa": 2655,
      "Ġanni": 2656,
      "Ġgeneral": 2657,
      "Ġdid": 2658,
      "ischer": 2659,
      "ĠAu": 2660,
      "miniat": 2661,
      "Ã³d": 2662,
      "bra": 2663,
      "Ġ2014": 2664,
      "Ġ2002": 2665,
      "Ġhier": 2666,
      "Ġhan": 2667,
      "Ġpays": 2668,
      "ĠVol": 2669,
      "Ġsing": 2670,
      "lev": 2671,
      "Ġwiel": 2672,
      "ĠJac": 2673,
      "iqu": 2674,
      "Ġvery": 2675,
      "owaÅĤ": 2676,
      "ÅĦst": 2677,
      "Ġdit": 2678,
      "orge": 2679,
      "isten": 2680,
      "Ġeven": 2681,
      "clus": 2682,
      "anse": 2683,
      "ash": 2684,
      "Ġlug": 2685,
      "Ġ187": 2686,
      "ĠIII": 2687,
      "Ġcomput": 2688,
      "amen": 2689,
      "Ġdia": 2690,
      "usz": 2691,
      "Ġthrough": 2692,
      "ÄĻd": 2693,
      "alen": 2694,
      "anza": 2695,
      "regues": 2696,
      "ouw": 2697,
      "Ġciv": 2698,
      "hod": 2699,
      "Ġcompar": 2700,
      "ĠMat": 2701,
      "Ġgel": 2702,
      "Ġdef": 2703,
      "Ġgu": 2704,
      "ĠBras": 2705,
      "Ġsyn": 2706,
      "ĠktÃ³re": 2707,
      "Ġcitt": 2708,
      "ĠJos": 2709,
      "reich": 2710,
      "80": 2711,
      "Ġju": 2712,
      "Ġ2020": 2713,
      "ĠGo": 2714,
      "Ġ2015": 2715,
      "reas": 2716,
      "Ġjaar": 2717,
      "Ġgest": 2718,
      "Ġmany": 2719,
      "Ġnumber": 2720,
      "ĠHar": 2721,
      "ae": 2722,
      "mica": 2723,
      "Ġ2023": 2724,
      "45": 2725,
      "Ġwell": 2726,
      "Ġtechn": 2727,
      "rs": 2728,
      "itos": 2729,
      "mu": 2730,
      "gt": 2731,
      "esc": 2732,
      "ĠOl": 2733,
      "Ġ2003": 2734,
      "icha": 2735,
      "cep": 2736,
      "elli": 2737,
      "volv": 2738,
      "Ġhow": 2739,
      "onia": 2740,
      "Ġsous": 2741,
      "Ġtele": 2742,
      "ough": 2743,
      "Ġdomin": 2744,
      "ussi": 2745,
      "Ġeach": 2746,
      "Ġtest": 2747,
      "Ġlig": 2748,
      "ĠamÃ©ricain": 2749,
      "Ġ2022": 2750,
      "sche": 2751,
      "isc": 2752,
      "uta": 2753,
      "urch": 2754,
      "azioni": 2755,
      "ĠBen": 2756,
      "Ġsens": 2757,
      "ban": 2758,
      "sc": 2759,
      "33": 2760,
      "Âº": 2761,
      "Ġ2019": 2762,
      "Ġfem": 2763,
      "iÃ³": 2764,
      "Ġsuccess": 2765,
      "Ġstand": 2766,
      "Ġlike": 2767,
      "riz": 2768,
      "Ġcase": 2769,
      "Ġrefer": 2770,
      "ples": 2771,
      "Ġcommun": 2772,
      "Ġzn": 2773,
      "rel": 2774,
      "isk": 2775,
      "Ġalgun": 2776,
      "igo": 2777,
      "Ġeerste": 2778,
      "ification": 2779,
      "nic": 2780,
      "ruik": 2781,
      "sel": 2782,
      "Ġsat": 2783,
      "Ġ2016": 2784,
      "omm": 2785,
      "Ġvar": 2786,
      "ardo": 2787,
      "ering": 2788,
      "ogen": 2789,
      "ryty": 2790,
      "Ġtor": 2791,
      "Ġnaj": 2792,
      "Ġric": 2793,
      "Ġdetermin": 2794,
      "skich": 2795,
      "ful": 2796,
      "riv": 2797,
      "Ġsame": 2798,
      "Ġeinen": 2799,
      "ady": 2800,
      "entre": 2801,
      "ĠJul": 2802,
      ");": 2803,
      "ĠEuropa": 2804,
      "ison": 2805,
      "ctor": 2806,
      "Ġnorm": 2807,
      "ĠXV": 2808,
      "onte": 2809,
      "Ġast": 2810,
      "ieren": 2811,
      "Ġ2018": 2812,
      "Ġcompr": 2813,
      "izione": 2814,
      "Ġfact": 2815,
      "ĠSer": 2816,
      "Ġ100": 2817,
      "Ġcompon": 2818,
      "ationale": 2819,
      "Ġ2017": 2820,
      "ema": 2821,
      "amm": 2822,
      "35": 2823,
      "Ġbi": 2824,
      "gn": 2825,
      "gra": 2826,
      "Ġpriv": 2827,
      "Ġpremi": 2828,
      "iÃ£o": 2829,
      "ocz": 2830,
      "Ġ2024": 2831,
      "Ġreal": 2832,
      "ateur": 2833,
      "Ġmundo": 2834,
      "48": 2835,
      "Ġcomplex": 2836,
      "iar": 2837,
      "Ġtemper": 2838,
      "Ã§o": 2839,
      "Ġrepr": 2840,
      "anu": 2841,
      "ody": 2842,
      "Ġpes": 2843,
      "Ġ2025": 2844,
      "Ġprob": 2845,
      "dy": 2846,
      "Ġnur": 2847,
      "oÅĤ": 2848,
      "ĠArt": 2849,
      "ĠAss": 2850,
      "Ġ1998": 2851,
      "agne": 2852,
      "Ġacteur": 2853,
      "orith": 2854,
      "Ġmunic": 2855,
      "esp": 2856,
      "Ġcalled": 2857,
      "iers": 2858,
      "rael": 2859,
      "ivos": 2860,
      "Ġhuman": 2861,
      "ye": 2862,
      "way": 2863,
      "atro": 2864,
      "ĠrÃ©s": 2865,
      "Ġgew": 2866,
      "ĠJu": 2867,
      "Ġben": 2868,
      "Ġhabit": 2869,
      "uras": 2870,
      "ecz": 2871,
      "Ġwhat": 2872,
      "ctions": 2873,
      "keit": 2874,
      "ĠespaÃ±ol": 2875,
      "alk": 2876,
      "Ġep": 2877,
      "apt": 2878,
      "stra": 2879,
      "weg": 2880,
      "ativo": 2881,
      "Ġmemb": 2882,
      "ĠDuits": 2883,
      "Ġtwe": 2884,
      "Ġtras": 2885,
      "Ġcontinu": 2886,
      "Ġjako": 2887,
      "elen": 2888,
      "Ãºs": 2889,
      "inos": 2890,
      "oma": 2891,
      "ĠÃģ": 2892,
      "ĠWest": 2893,
      "Ġnome": 2894,
      "publ": 2895,
      "Ġfait": 2896,
      "Ġassoci": 2897,
      "Ġmain": 2898,
      "ournal": 2899,
      "Ġunt": 2900,
      "ĠtambiÃ©n": 2901,
      "hm": 2902,
      "Ġpierws": 2903,
      "Ġadminist": 2904,
      "arte": 2905,
      "uen": 2906,
      "Ġmethod": 2907,
      "ellen": 2908,
      "emplo": 2909,
      "39": 2910,
      "Ġplace": 2911,
      "kl": 2912,
      "rist": 2913,
      "Ġcamp": 2914,
      "ĠCast": 2915,
      "Th": 2916,
      "line": 2917,
      "ious": 2918,
      "osp": 2919,
      "ĠGuer": 2920,
      "Ġdeb": 2921,
      "has": 2922,
      "Ġbien": 2923,
      "ogo": 2924,
      "kÅĤad": 2925,
      "ĠSta": 2926,
      "aces": 2927,
      "left": 2928,
      "ĠPier": 2929,
      "ĠNor": 2930,
      "ension": 2931,
      "ww": 2932,
      "cha": 2933,
      "Ã¤hr": 2934,
      "Ġspe": 2935,
      "atter": 2936,
      "Ġ1997": 2937,
      "hec": 2938,
      "osto": 2939,
      "Ġfuer": 2940,
      "pond": 2941,
      "Ġparticip": 2942,
      "ĠOb": 2943,
      "Ġmeer": 2944,
      "udad": 2945,
      "Ġanos": 2946,
      "Ġans": 2947,
      "hor": 2948,
      "Ġprofess": 2949,
      "NA": 2950,
      "ovi": 2951,
      "ĠAle": 2952,
      "ĠDas": 2953,
      "ynam": 2954,
      "36": 2955,
      "iek": 2956,
      "atz": 2957,
      "zioni": 2958,
      "ological": 2959,
      "Ġkat": 2960,
      "Ġdont": 2961,
      "Ġindivid": 2962,
      "oni": 2963,
      "ĠBas": 2964,
      "ĠEstados": 2965,
      "ĠRobert": 2966,
      "Ġrev": 2967,
      "cho": 2968,
      "cze": 2969,
      "acc": 2970,
      "Ġdocument": 2971,
      "Ġdevelop": 2972,
      "Ġ185": 2973,
      "Ġconcept": 2974,
      "una": 2975,
      "III": 2976,
      "Ġcontrol": 2977,
      "Ġbek": 2978,
      "zn": 2979,
      "ĠTur": 2980,
      "Ġbesch": 2981,
      "iros": 2982,
      "Ġainsi": 2983,
      "ÃŃas": 2984,
      "Ġmill": 2985,
      "adre": 2986,
      "49": 2987,
      "Ġconstitu": 2988,
      "eten": 2989,
      "irt": 2990,
      "Ġstar": 2991,
      "Ġens": 2992,
      "olÃ³g": 2993,
      "Ġverb": 2994,
      "Ġcat": 2995,
      "Ġjust": 2996,
      "icult": 2997,
      "ila": 2998,
      "ĠItalia": 2999,
      "Ġdar": 3000,
      "Ġej": 3001,
      "Ġboth": 3002,
      "Ġtur": 3003,
      "ĠStr": 3004,
      "ĠgÃ©nÃ©r": 3005,
      "Ġhistor": 3006,
      "aren": 3007,
      "igu": 3008,
      "mon": 3009,
      "ĠMac": 3010,
      "Ġusing": 3011,
      "ria": 3012,
      "uses": 3013,
      "Ġexpress": 3014,
      "ĠAnton": 3015,
      "ÃŃf": 3016,
      "Ġlitt": 3017,
      "via": 3018,
      "upt": 3019,
      "Ġsud": 3020,
      "emente": 3021,
      "ĠHo": 3022,
      "Ã¡f": 3023,
      "ĠAc": 3024,
      "Ġinclu": 3025,
      "Ġeffect": 3026,
      "Ġpaper": 3027,
      "Ġ1980": 3028,
      "ussen": 3029,
      "Ġjap": 3030,
      "ĠSc": 3031,
      "jor": 3032,
      "code": 3033,
      "anger": 3034,
      "ĠMaria": 3035,
      "ajo": 3036,
      "ĠpolÃŃtico": 3037,
      "Ġfutbolista": 3038,
      "Ã¹": 3039,
      "âĶĢâĶĢâĶĢâĶĢâĶĢâĶĢâĶĢâĶĢ": 3040,
      "Ġresults": 3041,
      "Ġol": 3042,
      "ĠSu": 3043,
      "udo": 3044,
      "Ġviol": 3045,
      "ĠGal": 3046,
      "ĠPe": 3047,
      "iles": 3048,
      "Ġmig": 3049,
      "Ġaussi": 3050,
      "ĠDavid": 3051,
      "{\\": 3052,
      "ĠHol": 3053,
      "Ġtijd": 3054,
      "ĠMal": 3055,
      "vign": 3056,
      "Ġpolska": 3057,
      "Ġheeft": 3058,
      "Ġquando": 3059,
      "Ġges": 3060,
      "quis": 3061,
      "urt": 3062,
      "osc": 3063,
      "Ġsho": 3064,
      "gest": 3065,
      "osten": 3066,
      "ĠLond": 3067,
      "icamente": 3068,
      "Ġcell": 3069,
      "ĠMus": 3070,
      "asse": 3071,
      "Ġgebruik": 3072,
      "Ġget": 3073,
      "ĠÃ©g": 3074,
      "Ġbra": 3075,
      "Ġ50": 3076,
      "ĠDeutsch": 3077,
      "ĠnÃºmer": 3078,
      "itÃ¤t": 3079,
      "Ġcorres": 3080,
      "erde": 3081,
      "oper": 3082,
      "ĠBa": 3083,
      "Ġbeh": 3084,
      "miniatura": 3085,
      "ĠnÃ©": 3086,
      "Ġbecause": 3087,
      "Ġwurden": 3088,
      "vin": 3089,
      "iw": 3090,
      "hem": 3091,
      "stru": 3092,
      "ĠaÃ±os": 3093,
      "otto": 3094,
      "pret": 3095,
      "ĠStadt": 3096,
      "teil": 3097,
      "38": 3098,
      "ieden": 3099,
      "Ġnad": 3100,
      "wy": 3101,
      "Ġquestion": 3102,
      "Ġway": 3103,
      "Ã¡tica": 3104,
      "ĠSÃ£o": 3105,
      "Ġmak": 3106,
      "Ġcour": 3107,
      "Ġpropr": 3108,
      "indo": 3109,
      "Ġ1996": 3110,
      "Ġconn": 3111,
      "Ġjedn": 3112,
      "Ġmagn": 3113,
      "oj": 3114,
      "Ġtyp": 3115,
      "ches": 3116,
      "ĠGerman": 3117,
      "ĠYork": 3118,
      "ĠUm": 3119,
      "eck": 3120,
      "Ġ31": 3121,
      "eben": 3122,
      "cel": 3123,
      "rim": 3124,
      "Ġforam": 3125,
      "ĠArch": 3126,
      "other": 3127,
      "ester": 3128,
      "Ġthou": 3129,
      "organ": 3130,
      "ER": 3131,
      "ĠPat": 3132,
      "ling": 3133,
      "ilar": 3134,
      "ÅĤug": 3135,
      "frac": 3136,
      "ress": 3137,
      "ÄĻp": 3138,
      "37": 3139,
      "Ġkn": 3140,
      "bro": 3141,
      "Ġessere": 3142,
      "Ġlist": 3143,
      "ĠFrancis": 3144,
      "Ġ|": 3145,
      "ĠZeit": 3146,
      "ES": 3147,
      "Ġ/>": 3148,
      "rz": 3149,
      "ÄĻzy": 3150,
      "ĠDan": 3151,
      "Ġczy": 3152,
      "ĠUnidos": 3153,
      "rzy": 3154,
      "vignette": 3155,
      "Ġcould": 3156,
      "46": 3157,
      "47": 3158,
      "Ġbefore": 3159,
      "Ġ978": 3160,
      "90": 3161,
      "Ġdown": 3162,
      "ulo": 3163,
      "31": 3164,
      "zeich": 3165,
      "ĠMit": 3166,
      "Ãºblica": 3167,
      "ĠAll": 3168,
      "Ġ1995": 3169,
      "ĠOp": 3170,
      "round": 3171,
      "Ġnou": 3172,
      "Ġvie": 3173,
      "Ġx": 3174,
      "Ġdla": 3175,
      "ization": 3176,
      "Ġru": 3177,
      "Ġthree": 3178,
      "ĠAmerican": 3179,
      "ĠPortug": 3180,
      "ĠÃª": 3181,
      "wn": 3182,
      "embre": 3183,
      "ected": 3184,
      "It": 3185,
      "aff": 3186,
      "Ġpoc": 3187,
      "ĠÃ©l": 3188,
      "ĠÂ»,": 3189,
      "ĠNord": 3190,
      "197": 3191,
      "iÃ¨re": 3192,
      "Ġcaso": 3193,
      "king": 3194,
      "uage": 3195,
      "ford": 3196,
      "...": 3197,
      "Ch": 3198,
      "ware": 3199,
      "Ġcual": 3200,
      "Ġsay": 3201,
      "Kategorie": 3202,
      "cion": 3203,
      "Ġlub": 3204,
      "arget": 3205,
      "Ġdall": 3206,
      "vert": 3207,
      "Ġpochod": 3208,
      "Ġ1994": 3209,
      "esi": 3210,
      "ieg": 3211,
      "--": 3212,
      "acht": 3213,
      "anow": 3214,
      "Ġwel": 3215,
      "AT": 3216,
      "utions": 3217,
      "Ġpred": 3218,
      "Ġtit": 3219,
      "amiento": 3220,
      "ĠcittÃł": 3221,
      "Ġsegu": 3222,
      "yer": 3223,
      "Ġinvestig": 3224,
      "ota": 3225,
      "Ġperiod": 3226,
      "Ġtotal": 3227,
      "Ġproces": 3228,
      "tement": 3229,
      "ots": 3230,
      "Ġverd": 3231,
      "ĠXI": 3232,
      "Ġpopular": 3233,
      "Ġaustr": 3234,
      "Ġmilit": 3235,
      "Ġai": 3236,
      "Ġprovin": 3237,
      "ĠXX": 3238,
      "Ġfound": 3239,
      "tober": 3240,
      "Ġanalysis": 3241,
      "erson": 3242,
      "inger": 3243,
      "ÅĤow": 3244,
      "Ġbras": 3245,
      "atore": 3246,
      "ĠVen": 3247,
      "allery": 3248,
      "ago": 3249,
      "ĠMod": 3250,
      "yse": 3251,
      "ilia": 3252,
      "Ġvom": 3253,
      "ĠĠĠ": 3254,
      "Ġpis": 3255,
      "ĠAlex": 3256,
      "Ġprod": 3257,
      "Ġcada": 3258,
      "icano": 3259,
      "ules": 3260,
      "Ġdaar": 3261,
      "ĠLet": 3262,
      "Ġmoder": 3263,
      "Ġstrat": 3264,
      "heit": 3265,
      "allen": 3266,
      "Ġfur": 3267,
      "ift": 3268,
      "Ġpou": 3269,
      "Ġviene": 3270,
      "onie": 3271,
      "sa": 3272,
      "ĠFin": 3273,
      "Ġstad": 3274,
      "Ġwater": 3275,
      "cos": 3276,
      "Ġevery": 3277,
      "ved": 3278,
      "wad": 3279,
      "leich": 3280,
      "Ġcontro": 3281,
      "ĠJosÃ©": 3282,
      "omo": 3283,
      "ĠSol": 3284,
      "Ġitaliano": 3285,
      "Ġkle": 3286,
      "terior": 3287,
      "ĠBut": 3288,
      "ucle": 3289,
      "ĠCam": 3290,
      "Ġprom": 3291,
      "Ġhistory": 3292,
      "ĠMag": 3293,
      "Ġtrat": 3294,
      "ĠzostaÅĤ": 3295,
      "ĠIf": 3296,
      "196": 3297,
      "ĠSanta": 3298,
      "istic": 3299,
      "ĠItal": 3300,
      "plement": 3301,
      "blic": 3302,
      "Ã§as": 3303,
      "Ġstate": 3304,
      "Ġfollow": 3305,
      "arde": 3306,
      "ĠCap": 3307,
      "rijk": 3308,
      "anci": 3309,
      "ptem": 3310,
      "Ġthy": 3311,
      "ologÃŃa": 3312,
      "ĠKe": 3313,
      "enia": 3314,
      "esa": 3315,
      "tet": 3316,
      "uth": 3317,
      "ierung": 3318,
      "Im": 3319,
      "Ġ1992": 3320,
      "âĢĿ,": 3321,
      "hip": 3322,
      "arrol": 3323,
      "ries": 3324,
      "Ġnatural": 3325,
      "bit": 3326,
      "iere": 3327,
      "Ġbez": 3328,
      "Ġpoder": 3329,
      "ÅĤÃ³w": 3330,
      "cciÃ³n": 3331,
      "ĠCas": 3332,
      "elo": 3333,
      "rum": 3334,
      "ĠMet": 3335,
      "Ġâ": 3336,
      "acion": 3337,
      "Ġ40": 3338,
      "Ġfrances": 3339,
      "ances": 3340,
      "Ġorder": 3341,
      "aden": 3342,
      "ĠBrasil": 3343,
      "Ġmer": 3344,
      "ĠmÃªme": 3345,
      "teurs": 3346,
      "Ġid": 3347,
      "iner": 3348,
      "ĠBerlin": 3349,
      "ĠÃ©p": 3350,
      "Ġtegen": 3351,
      "ualmente": 3352,
      "Ġdesen": 3353,
      "ionn": 3354,
      "Ġnue": 3355,
      "34": 3356,
      "esis": 3357,
      "arc": 3358,
      "Ġniemiec": 3359,
      "Ġallem": 3360,
      "ĠAustr": 3361,
      "ĠGes": 3362,
      "tor": 3363,
      "ables": 3364,
      "Ġimportante": 3365,
      "Em": 3366,
      "istes": 3367,
      "Ġzwe": 3368,
      "ĠhistÃ³r": 3369,
      "wh": 3370,
      "Ã¡rios": 3371,
      "Ġtym": 3372,
      "formation": 3373,
      "Ã±o": 3374,
      "Ġzak": 3375,
      "innen": 3376,
      "Ġwrit": 3377,
      "Ġnell": 3378,
      "Ġzap": 3379,
      "Ġ1970": 3380,
      "nika": 3381,
      "owego": 3382,
      "Ġportug": 3383,
      "oso": 3384,
      "Ġstop": 3385,
      "Ġabs": 3386,
      "get": 3387,
      "Ġcapital": 3388,
      "Ġorigin": 3389,
      "inas": 3390,
      "ivamente": 3391,
      "arsza": 3392,
      "ĠCons": 3393,
      "uis": 3394,
      "lij": 3395,
      "Ġczas": 3396,
      "Ġsido": 3397,
      "ĠTor": 3398,
      "ÅĤu": 3399,
      "Ġgovern": 3400,
      "Ġappar": 3401,
      "itud": 3402,
      "ols": 3403,
      "Ġpob": 3404,
      "ĠMuse": 3405,
      "Ġhel": 3406,
      "Ġtempo": 3407,
      "ĠZw": 3408,
      "iesz": 3409,
      "eno": 3410,
      "Ġmake": 3411,
      "fol": 3412,
      "Ġpresidente": 3413,
      "rytyj": 3414,
      "paÃ±a": 3415,
      "Ġeduc": 3416,
      "Ġjego": 3417,
      "ader": 3418,
      "pla": 3419,
      "Ġtout": 3420,
      "ĠprÃ³": 3421,
      "ĠczÄĻ": 3422,
      "Ġmic": 3423,
      "iÄħz": 3424,
      "ierte": 3425,
      "ises": 3426,
      "ĠUniversity": 3427,
      "Ġ1993": 3428,
      "tempor": 3429,
      "inder": 3430,
      "Ġfav": 3431,
      "ĠdziaÅĤ": 3432,
      "Ġorient": 3433,
      "Ġihr": 3434,
      "puis": 3435,
      "bi": 3436,
      "Ġriv": 3437,
      "ĠEg": 3438,
      "Ġpraw": 3439,
      "ĠĠĠĠĠĠĠĠ": 3440,
      "Ġnature": 3441,
      "Ġyour": 3442,
      "kon": 3443,
      "Ġnog": 3444,
      "yle": 3445,
      "ĠÃºlt": 3446,
      "staw": 3447,
      "ĠBelgisch": 3448,
      "tains": 3449,
      "Ġ1991": 3450,
      "Ã¶l": 3451,
      "endant": 3452,
      "Ġlui": 3453,
      "nes": 3454,
      "ower": 3455,
      "Ġear": 3456,
      "Ġcentro": 3457,
      "Ġapproach": 3458,
      "Ġpom": 3459,
      "Ġven": 3460,
      "owever": 3461,
      "kte": 3462,
      "Ġni": 3463,
      "32": 3464,
      "iÄĻks": 3465,
      "kom": 3466,
      "Ġproblem": 3467,
      "ĠLas": 3468,
      "Ġcomple": 3469,
      "Ġmehr": 3470,
      "wick": 3471,
      "Ġeurope": 3472,
      "ĠTra": 3473,
      "Ġciudad": 3474,
      "ÃŁen": 3475,
      "ĠAg": 3476,
      "Ġfield": 3477,
      "Ġba": 3478,
      "etti": 3479,
      "gallery": 3480,
      "ĠÃªtre": 3481,
      "ĠdÃ©velop": 3482,
      "Ġindepend": 3483,
      "onde": 3484,
      "ĠRich": 3485,
      "uso": 3486,
      "Ġaber": 3487,
      "Ġfrancus": 3488,
      "Ġliber": 3489,
      "ĠAuf": 3490,
      "Ġnecess": 3491,
      "mod": 3492,
      "ittel": 3493,
      "rem": 3494,
      "ĠAut": 3495,
      "Ã¨ne": 3496,
      "Ġobject": 3497,
      "Les": 3498,
      "Ġsl": 3499,
      "ef": 3500,
      "Ġpeut": 3501,
      "Ġtri": 3502,
      "iembre": 3503,
      "Ġculture": 3504,
      "owan": 3505,
      "eda": 3506,
      "Ġalgorith": 3507,
      "ecto": 3508,
      "ĠInter": 3509,
      "rot": 3510,
      "Ġleng": 3511,
      "ĠSci": 3512,
      "Ġpens": 3513,
      "Ġglob": 3514,
      "dzy": 3515,
      "pÃ©": 3516,
      "iog": 3517,
      "Ġprzed": 3518,
      "Ġrespect": 3519,
      "work": 3520,
      "zÄħd": 3521,
      ".âĢĿ": 3522,
      "Ġdopo": 3523,
      "ĠjÄĻzy": 3524,
      "Ġmanif": 3525,
      "yr": 3526,
      "enas": 3527,
      "Ġgesch": 3528,
      "edia": 3529,
      "chan": 3530,
      "ĠGl": 3531,
      "Ġ180": 3532,
      "Ġvida": 3533,
      "Ġsour": 3534,
      "//": 3535,
      "Ġ1945": 3536,
      "Ġgiven": 3537,
      "Ġsee": 3538,
      "Ġnational": 3539,
      "ĠUr": 3540,
      "ĠÅ¼": 3541,
      "ĠÃ©ta": 3542,
      "Ġopen": 3543,
      "Ġappe": 3544,
      "ĠSaint": 3545,
      "ulation": 3546,
      "ĠBern": 3547,
      "Ġactrice": 3548,
      "ability": 3549,
      "Ġfind": 3550,
      "ĠRad": 3551,
      "ĠJose": 3552,
      "ray": 3553,
      "ÅĤÄħ": 3554,
      "pp": 3555,
      "Ġdra": 3556,
      "ifs": 3557,
      "Ġoffic": 3558,
      "Ġsport": 3559,
      "erse": 3560,
      "Ġdesarrol": 3561,
      "iante": 3562,
      "Ġkl": 3563,
      "Ġcontrib": 3564,
      "ically": 3565,
      "Ġshould": 3566,
      "Ġloro": 3567,
      "mit": 3568,
      "Ġintrodu": 3569,
      "ĠLou": 3570,
      "ĠJer": 3571,
      "chÃ©": 3572,
      "net": 3573,
      "gens": 3574,
      "Ġposit": 3575,
      "labor": 3576,
      "ĠWil": 3577,
      "ĠDies": 3578,
      "ĠFe": 3579,
      "Ġtanto": 3580,
      "ĠCharles": 3581,
      "Ġmont": 3582,
      "uls": 3583,
      "ilosoph": 3584,
      "ĠEste": 3585,
      "eling": 3586,
      "Ġyears": 3587,
      "55": 3588,
      "anten": 3589,
      "Ġarg": 3590,
      "Ġbrasile": 3591,
      "try": 3592,
      "ĠEng": 3593,
      "ienia": 3594,
      "eto": 3595,
      "inen": 3596,
      "aro": 3597,
      "Ġrelativ": 3598,
      "44": 3599,
      "ĠÅļ": 3600,
      "Ġabove": 3601,
      "Ġmodern": 3602,
      "ĠSec": 3603,
      "Ġminist": 3604,
      "Ġhasta": 3605,
      "ason": 3606,
      "skim": 3607,
      "Ġ1960": 3608,
      "pert": 3609,
      "ai": 3610,
      "Ġindic": 3611,
      "ĠNov": 3612,
      "Ã©tÃ©": 3613,
      "Ġmens": 3614,
      "ĠDo": 3615,
      "ĠGen": 3616,
      "Ġmort": 3617,
      "IS": 3618,
      "ĠSim": 3619,
      "iÄĻdzy": 3620,
      "Ġ1989": 3621,
      "ĠmÃ©": 3622,
      "ĠcrÃ©": 3623,
      "anal": 3624,
      "ÃŃan": 3625,
      "zent": 3626,
      "ĠlÃŃ": 3627,
      "âĢĿ.": 3628,
      "Äħd": 3629,
      "ĠthÃ©": 3630,
      "88": 3631,
      "nung": 3632,
      "ĠPres": 3633,
      "Ġupon": 3634,
      "Ġcaracter": 3635,
      "eur": 3636,
      "ĠÃīt": 3637,
      "ĠFer": 3638,
      "Ġcolon": 3639,
      "ebru": 3640,
      "oir": 3641,
      "ĠatÃ©": 3642,
      "Ġchild": 3643,
      "ĠrÃ³w": 3644,
      "Ġdiscuss": 3645,
      "itaire": 3646,
      "Ġtw": 3647,
      "Ġtermin": 3648,
      "ĠPhil": 3649,
      "amment": 3650,
      "zenie": 3651,
      "tein": 3652,
      "chow": 3653,
      "utz": 3654,
      "ĠPress": 3655,
      "Ġgoverno": 3656,
      "reguesia": 3657,
      "Ġargent": 3658,
      "Ġrequ": 3659,
      "Ġhac": 3660,
      "ĠThere": 3661,
      "jÄħce": 3662,
      "ĠSto": 3663,
      "inha": 3664,
      "ĠÅ¼y": 3665,
      "Ġarm": 3666,
      "Ġphys": 3667,
      "valu": 3668,
      "Ġopt": 3669,
      "ror": 3670,
      "ĠDem": 3671,
      "Ġrelations": 3672,
      "ĠTrans": 3673,
      "pan": 3674,
      "Ġnat": 3675,
      "Ġtop": 3676,
      "ĠÎ": 3677,
      "inda": 3678,
      "hand": 3679,
      "Ġmatem": 3680,
      "erst": 3681,
      "Ġautom": 3682,
      "Ġpossible": 3683,
      "Ġespecial": 3684,
      "quent": 3685,
      "ahl": 3686,
      "Ġnacional": 3687,
      "Ġevent": 3688,
      "Ġnord": 3689,
      "://": 3690,
      "180": 3691,
      "opt": 3692,
      "Ġemp": 3693,
      "Ġdivis": 3694,
      "unda": 3695,
      "ktr": 3696,
      "anta": 3697,
      "pose": 3698,
      "ĠInt": 3699,
      "iction": 3700,
      "Ġbased": 3701,
      "Ġcidade": 3702,
      "Ġpode": 3703,
      "Ã©gorie": 3704,
      "kie": 3705,
      "ross": 3706,
      "ration": 3707,
      "Ġtec": 3708,
      "ĠEnt": 3709,
      "***": 3710,
      "Ġtype": 3711,
      "Ġ?": 3712,
      "ĠRoma": 3713,
      "but": 3714,
      "iente": 3715,
      "Ġsche": 3716,
      "ĠSup": 3717,
      "enie": 3718,
      "Ġcirc": 3719,
      "Ġtodos": 3720,
      "Ġverw": 3721,
      "sze": 3722,
      "Ġdig": 3723,
      "ĠSz": 3724,
      "Ã¼ck": 3725,
      "bben": 3726,
      "abl": 3727,
      "ustri": 3728,
      "Ġsou": 3729,
      "Ġgas": 3730,
      "Ġtipo": 3731,
      "Ġeigen": 3732,
      "Ġeines": 3733,
      "Ġko": 3734,
      "noÅĽÄĩ": 3735,
      "illes": 3736,
      "ĠNie": 3737,
      "Ġlarge": 3738,
      "Ġlater": 3739,
      "Ġderiv": 3740,
      "ĠNach": 3741,
      "ĠdiffÃ©r": 3742,
      "iber": 3743,
      "Cat": 3744,
      "Ġnaz": 3745,
      "ĠBol": 3746,
      "bum": 3747,
      "Ġproduct": 3748,
      "ĠThey": 3749,
      "Ġpero": 3750,
      "arios": 3751,
      "oten": 3752,
      "nica": 3753,
      "viron": 3754,
      "ju": 3755,
      "ĠSam": 3756,
      "ĠMont": 3757,
      "89": 3758,
      "hi": 3759,
      "Ġeeuw": 3760,
      "Re": 3761,
      "Ġgrandes": 3762,
      "obil": 3763,
      "produ": 3764,
      "Ġlook": 3765,
      "Ġquesto": 3766,
      "ĠBand": 3767,
      "Ġfon": 3768,
      "Ġros": 3769,
      "iety": 3770,
      "Ġsil": 3771,
      "Ġinstit": 3772,
      "zym": 3773,
      "unkt": 3774,
      "Ġschrij": 3775,
      "Ġseus": 3776,
      "Ġconcent": 3777,
      "Ġcontext": 3778,
      "Ġstato": 3779,
      "ĠreprÃ©s": 3780,
      "Ġcou": 3781,
      "Ġfol": 3782,
      "fa": 3783,
      "Ġtussen": 3784,
      "ĠÃľ": 3785,
      "Ġhun": 3786,
      "ĠEle": 3787,
      "Ġuso": 3788,
      "gebra": 3789,
      "ĠWorld": 3790,
      "Ġbrytyj": 3791,
      "ector": 3792,
      "Ġwz": 3793,
      "volu": 3794,
      "ĠNob": 3795,
      "Ġfal": 3796,
      "format": 3797,
      "ĠGesch": 3798,
      "enci": 3799,
      "ĠnÃºmero": 3800,
      "Ġcertain": 3801,
      "ostr": 3802,
      "bel": 3803,
      "ĠMicha": 3804,
      "Ġrela": 3805,
      "Ġtrava": 3806,
      "rad": 3807,
      "asi": 3808,
      "ope": 3809,
      "ĠRec": 3810,
      "ying": 3811,
      "Ġtodo": 3812,
      "Ġmog": 3813,
      "OS": 3814,
      "can": 3815,
      "ril": 3816,
      "hund": 3817,
      "Ġmaterial": 3818,
      "Ġthee": 3819,
      "Ġmem": 3820,
      "uda": 3821,
      "ĠSeg": 3822,
      "Ġactor": 3823,
      "Ġpon": 3824,
      "Ġlingu": 3825,
      "vere": 3826,
      "Ġconserv": 3827,
      "iga": 3828,
      "ized": 3829,
      "Ġpsych": 3830,
      "ĠHit": 3831,
      "Ġredu": 3832,
      "Ġband": 3833,
      "ĠDen": 3834,
      "ĠÃ©galement": 3835,
      "Ġdistrib": 3836,
      "Ġsepar": 3837,
      "Ġing": 3838,
      "Ġlors": 3839,
      "Ġpuede": 3840,
      "Ġimm": 3841,
      "ĠÐ": 3842,
      "ielle": 3843,
      "Ġatle": 3844,
      "75": 3845,
      "ĠNic": 3846,
      "Ġpp": 3847,
      "Ġdin": 3848,
      "ĠtakÅ¼e": 3849,
      "forma": 3850,
      "ĠStud": 3851,
      "Ġpersonn": 3852,
      "nis": 3853,
      "Ġback": 3854,
      "ÃŁe": 3855,
      "Ã¤nd": 3856,
      "Ġsequ": 3857,
      "ucht": 3858,
      "undial": 3859,
      "Ġtarget": 3860,
      "65": 3861,
      "Ġchang": 3862,
      "Ġradio": 3863,
      "rest": 3864,
      "Ġinterpret": 3865,
      "ocrat": 3866,
      "Ġlu": 3867,
      "weise": 3868,
      "ĠSen": 3869,
      "Ġconj": 3870,
      "Ġwyn": 3871,
      "ilder": 3872,
      "abel": 3873,
      "ptember": 3874,
      "arse": 3875,
      "Ġfoot": 3876,
      "Ġprimo": 3877,
      "Ġhal": 3878,
      "Ġconsid": 3879,
      "ĠCla": 3880,
      "iblio": 3881,
      "Ġnoch": 3882,
      "Ġnorte": 3883,
      "rique": 3884,
      "ĠSie": 3885,
      "voor": 3886,
      "Ġpoliticus": 3887,
      "Ġveel": 3888,
      "ĠBy": 3889,
      "Ġecon": 3890,
      "ĠAugust": 3891,
      "Ġfot": 3892,
      "ĠDon": 3893,
      "unque": 3894,
      "odes": 3895,
      "Ġkra": 3896,
      "Ġcorrespond": 3897,
      "ris": 3898,
      "95": 3899,
      "zza": 3900,
      "emble": 3901,
      "ards": 3902,
      "Ġterm": 3903,
      "Ġnei": 3904,
      "Ġstructure": 3905,
      "ĠLin": 3906,
      "Ġday": 3907,
      "iais": 3908,
      "ĠGi": 3909,
      "Ġsac": 3910,
      "position": 3911,
      "oy": 3912,
      "Ġkos": 3913,
      "ĠIg": 3914,
      "Ġmodo": 3915,
      "wi": 3916,
      "voir": 3917,
      "Ġtal": 3918,
      "ĠIsrael": 3919,
      "Ġdw": 3920,
      "Ġtorn": 3921,
      "Ġcy": 3922,
      "ĠPet": 3923,
      "Ġconhec": 3924,
      "ĠmÃ©t": 3925,
      "Ġlevel": 3926,
      "ĠBund": 3927,
      "Ġbud": 3928,
      "ĠCe": 3929,
      "85": 3930,
      "orial": 3931,
      "Ġkol": 3932,
      "ĠPierre": 3933,
      "kra": 3934,
      "ĠpolÃŃtica": 3935,
      "rench": 3936,
      "ĠVan": 3937,
      "Ġlip": 3938,
      "mal": 3939,
      "Ġsowie": 3940,
      "contr": 3941,
      "42": 3942,
      "rale": 3943,
      "ega": 3944,
      "Ġthose": 3945,
      "ĠannÃ©es": 3946,
      "Ã³b": 3947,
      "Ġregist": 3948,
      "issensch": 3949,
      "41": 3950,
      "Ġrespons": 3951,
      "66": 3952,
      "Ġtrois": 3953,
      "ified": 3954,
      "assen": 3955,
      "Ġwa": 3956,
      "ĠKra": 3957,
      "enda": 3958,
      "ither": 3959,
      "ĠNational": 3960,
      "ĠNap": 3961,
      "auf": 3962,
      "Ġdic": 3963,
      "Ġprimer": 3964,
      "Ġjur": 3965,
      "ĠJames": 3966,
      "Ġvert": 3967,
      "Ġfinal": 3968,
      "han": 3969,
      "Ġinclud": 3970,
      "Ġcro": 3971,
      "owania": 3972,
      "Ġtrab": 3973,
      "Ġkil": 3974,
      "ĠFrans": 3975,
      "ĠStan": 3976,
      "ĠSi": 3977,
      "oi": 3978,
      "ieurs": 3979,
      "lung": 3980,
      "owym": 3981,
      "Ġcla": 3982,
      "ĠMÃ¼n": 3983,
      "ĠCa": 3984,
      "itect": 3985,
      "Ġconoc": 3986,
      "Ġcontempor": 3987,
      "osi": 3988,
      "ĠDel": 3989,
      "Ġzou": 3990,
      "Ġdonn": 3991,
      "ĠEspaÃ±a": 3992,
      "ĠMc": 3993,
      "Ġcoun": 3994,
      "Ġva": 3995,
      "ĠJahrhund": 3996,
      "iff": 3997,
      "Ġcombin": 3998,
      "uje": 3999,
      "gress": 4000,
      "As": 4001,
      "ĠWilliam": 4002,
      "Ġ1986": 4003,
      "orden": 4004,
      "CatÃ©gorie": 4005,
      "Ġ*": 4006,
      "hos": 4007,
      "Ġ1988": 4008,
      "Ġaqu": 4009,
      "stitu": 4010,
      "Ġhomme": 4011,
      "Fran": 4012,
      "Ġcrist": 4013,
      "Ġkatolic": 4014,
      "Ġcamb": 4015,
      "ĠpaÃŃses": 4016,
      "SD": 4017,
      "Ġagainst": 4018,
      "Ġduring": 4019,
      "43": 4020,
      "99": 4021,
      "Ġking": 4022,
      "unk": 4023,
      "Ġexperiment": 4024,
      "Ġpeu": 4025,
      "Ġdecis": 4026,
      "ĠfranÃ§aise": 4027,
      "chts": 4028,
      "Ġnet": 4029,
      "igt": 4030,
      "cted": 4031,
      "Ġdens": 4032,
      "ĠRes": 4033,
      "Ġill": 4034,
      "ĠGeorg": 4035,
      "olare": 4036,
      "ĠbyÅĤ": 4037,
      "ĠWar": 4038,
      "Â«": 4039,
      "ivi": 4040,
      "Ġdre": 4041,
      "Ġimportant": 4042,
      "essa": 4043,
      "Ġmarca": 4044,
      "ĠWal": 4045,
      "ierz": 4046,
      "gin": 4047,
      "karka": 4048,
      "win": 4049,
      "Ġcame": 4050,
      "Ġworld": 4051,
      "Ã¡l": 4052,
      "Ġapro": 4053,
      "Categorie": 4054,
      "Ġdirect": 4055,
      "entro": 4056,
      "Ġcontre": 4057,
      "Ġsulla": 4058,
      "andid": 4059,
      "Ġdepend": 4060,
      "Ġrese": 4061,
      "Ġdag": 4062,
      "ĠoÃ¹": 4063,
      "azz": 4064,
      "Ġspace": 4065,
      "uwe": 4066,
      "ĠDur": 4067,
      "Ġcentral": 4068,
      "ionen": 4069,
      "Ġtwee": 4070,
      "Åį": 4071,
      "ped": 4072,
      "ĠEen": 4073,
      "ammen": 4074,
      "inte": 4075,
      "AN": 4076,
      "ON": 4077,
      "ĠGio": 4078,
      "uren": 4079,
      "Ġcampo": 4080,
      "Ġtrav": 4081,
      "ffic": 4082,
      "Ġdepuis": 4083,
      "Ġsendo": 4084,
      "ential": 4085,
      "Ġcop": 4086,
      "ĠUni": 4087,
      "Ġhebben": 4088,
      "ĠDa": 4089,
      "gang": 4090,
      "Ġconstit": 4091,
      "ĠMÃ©": 4092,
      "ĠRos": 4093,
      "195": 4094,
      "Ġsyst": 4095,
      "posit": 4096,
      "Ġlugar": 4097,
      "::": 4098,
      "reb": 4099,
      "Ġface": 4100,
      "Ġelect": 4101,
      "ĠArgent": 4102,
      "Ġzd": 4103,
      "Ġscient": 4104,
      "omor": 4105,
      "ood": 4106,
      "ĠEurop": 4107,
      "86": 4108,
      "Ġdesign": 4109,
      "Ġnucle": 4110,
      "Ġjou": 4111,
      "ĠRa": 4112,
      "ĠNacional": 4113,
      "ĠSur": 4114,
      "Ġsug": 4115,
      "ĠGuerra": 4116,
      "Ġdecl": 4117,
      "Ġniemiecki": 4118,
      "Ġvel": 4119,
      "ogn": 4120,
      "Ġzwischen": 4121,
      "dent": 4122,
      "Ġwsp": 4123,
      "ser": 4124,
      "Ġfunction": 4125,
      "Ġmiej": 4126,
      "Am": 4127,
      "Ġbal": 4128,
      "Ġbeing": 4129,
      "ĠComm": 4130,
      "Ġbus": 4131,
      "ÃŃcul": 4132,
      "Ġfar": 4133,
      "riff": 4134,
      "isf": 4135,
      "ĠGeorge": 4136,
      "atori": 4137,
      "hemat": 4138,
      "Ġkann": 4139,
      "aÅĤo": 4140,
      "Ġdiss": 4141,
      "Ġga": 4142,
      "Ġbere": 4143,
      "Ġetwa": 4144,
      "Ġdiferentes": 4145,
      "upright": 4146,
      "Ġprincipal": 4147,
      "}{": 4148,
      "Ġgroot": 4149,
      "ll": 4150,
      "mico": 4151,
      "Ġname": 4152,
      "bij": 4153,
      "action": 4154,
      "ĠmÃºs": 4155,
      "ledge": 4156,
      "bas": 4157,
      "ĠPap": 4158,
      "Ġyet": 4159,
      "czas": 4160,
      "Ġoutros": 4161,
      "onne": 4162,
      "rut": 4163,
      "ĠAlf": 4164,
      "anos": 4165,
      "Ġlek": 4166,
      "Ġplaats": 4167,
      "ool": 4168,
      "Ġmusic": 4169,
      "ĠGa": 4170,
      "Ã©tica": 4171,
      "gua": 4172,
      ",âĢĿ": 4173,
      "Ġdam": 4174,
      "berto": 4175,
      "Ã©ci": 4176,
      "Ġhav": 4177,
      "Ġpuis": 4178,
      "Ġpopulation": 4179,
      "orr": 4180,
      "face": 4181,
      "arzy": 4182,
      "onden": 4183,
      "iki": 4184,
      "ilt": 4185,
      "Ġlimit": 4186,
      "ĠThese": 4187,
      "Ġweb": 4188,
      "iÃ§Ãµes": 4189,
      "ĠRen": 4190,
      "umento": 4191,
      "ĠRel": 4192,
      "ĠwÅĤos": 4193,
      "plom": 4194,
      "nement": 4195,
      "Ġpet": 4196,
      "zer": 4197,
      "dic": 4198,
      "ĠJahrhundert": 4199,
      "fÃ¼hr": 4200,
      "Ġaccord": 4201,
      "ĠWarsza": 4202,
      "Ġtelevis": 4203,
      "ache": 4204,
      "annt": 4205,
      "enen": 4206,
      "Ġig": 4207,
      "serv": 4208,
      "_{": 4209,
      "occ": 4210,
      "rach": 4211,
      "Ġdial": 4212,
      "ĠFern": 4213,
      "Ġapar": 4214,
      "heim": 4215,
      "Ġtrabal": 4216,
      "Ã©ra": 4217,
      "Ġpochodzenia": 4218,
      "Ġapplic": 4219,
      "Ġlev": 4220,
      "istoire": 4221,
      "izaÃ§Ã£o": 4222,
      "hol": 4223,
      "rang": 4224,
      "Â».": 4225,
      "Ġknown": 4226,
      "aggio": 4227,
      "ĠJuan": 4228,
      "stant": 4229,
      "Ã³rio": 4230,
      "Ġ1985": 4231,
      "Ã¤ch": 4232,
      "Ġtheor": 4233,
      "Ġalem": 4234,
      "ĠDar": 4235,
      "Ġrece": 4236,
      "Ġsum": 4237,
      "ĠPeter": 4238,
      "usse": 4239,
      "vano": 4240,
      "ĠGener": 4241,
      "Ġiss": 4242,
      "iras": 4243,
      "Ġtour": 4244,
      "enig": 4245,
      "rift": 4246,
      "77": 4247,
      "tto": 4248,
      "Ġpress": 4249,
      "rÄĻ": 4250,
      "Ġgood": 4251,
      "Ġale": 4252,
      "Ġobra": 4253,
      "ought": 4254,
      "Ø§": 4255,
      "amil": 4256,
      "Ġpract": 4257,
      "gesch": 4258,
      "Se": 4259,
      "ĠsiÃ¨": 4260,
      "Ġmerc": 4261,
      "Ġ1979": 4262,
      "ĠForm": 4263,
      "Ġsecolo": 4264,
      "ists": 4265,
      "ieron": 4266,
      "Ġ1982": 4267,
      "Ġgouver": 4268,
      "ĠThomas": 4269,
      "cÃ³w": 4270,
      "xto": 4271,
      "ĠLat": 4272,
      "Ġbed": 4273,
      "ĠFrancia": 4274,
      "Ġ60": 4275,
      "rik": 4276,
      "Ġ1984": 4277,
      "ĠSoci": 4278,
      "Ġotros": 4279,
      "Ġsop": 4280,
      "Ġstycz": 4281,
      "Ġblo": 4282,
      "Ġcommer": 4283,
      "ĠkÃ¶n": 4284,
      "owane": 4285,
      "IC": 4286,
      "AR": 4287,
      "oven": 4288,
      "ĠPortugal": 4289,
      "Ġ]": 4290,
      "ocia": 4291,
      "Ġcapac": 4292,
      "hre": 4293,
      "ĠLib": 4294,
      "cipl": 4295,
      "Ġped": 4296,
      "Ã¨te": 4297,
      "Ġutilis": 4298,
      "ciones": 4299,
      "ibt": 4300,
      "ancia": 4301,
      "Ġlicz": 4302,
      "Ġsede": 4303,
      "Ġleurs": 4304,
      "ĠÃ¡rea": 4305,
      "Ġsuas": 4306,
      "Ġdynam": 4307,
      "ĠpopulaÃ§Ã£o": 4308,
      "Ġchem": 4309,
      "Ġlanguage": 4310,
      "Ġprev": 4311,
      "ams": 4312,
      "ĠIV": 4313,
      "ĠEstado": 4314,
      "zel": 4315,
      "Ġresearch": 4316,
      "Ġak": 4317,
      "zeit": 4318,
      "Ġ1987": 4319,
      "Ġetc": 4320,
      "Ġnotamment": 4321,
      "76": 4322,
      "fo": 4323,
      "Ġprovincia": 4324,
      "Ġsett": 4325,
      "Ġinformation": 4326,
      "Ġmac": 4327,
      "veis": 4328,
      "ftware": 4329,
      "Het": 4330,
      "}</": 4331,
      "Ġzm": 4332,
      "Ġimper": 4333,
      "Ġczerw": 4334,
      "Ġestim": 4335,
      "vor": 4336,
      "isen": 4337,
      "Ġ1944": 4338,
      "ĠtrÃ¨s": 4339,
      "Ãªte": 4340,
      "ĠApr": 4341,
      "outh": 4342,
      "Ġlife": 4343,
      "itude": 4344,
      "noc": 4345,
      "antas": 4346,
      "Ġappear": 4347,
      "Ġpartie": 4348,
      "ĠpremiÃ¨re": 4349,
      "Ġster": 4350,
      "Ġcha": 4351,
      "jon": 4352,
      "ught": 4353,
      "yjski": 4354,
      "Ġ1950": 4355,
      "ilo": 4356,
      "Ġwor": 4357,
      "Ġanc": 4358,
      "ĠKom": 4359,
      "ĠPed": 4360,
      "ivas": 4361,
      "ĠpÃº": 4362,
      "ĠJohann": 4363,
      "Ġeng": 4364,
      "Ġprojet": 4365,
      "oire": 4366,
      "Ġ1981": 4367,
      "Ġaltern": 4368,
      "Ġcity": 4369,
      "ĠPop": 4370,
      "Ġvier": 4371,
      "ÃŃvel": 4372,
      "ĠJes": 4373,
      "Ġnelle": 4374,
      "aÃ§Ãµes": 4375,
      "Ġks": 4376,
      "nel": 4377,
      "Ġwid": 4378,
      "Ġsier": 4379,
      "Ġrif": 4380,
      "owi": 4381,
      "uj": 4382,
      "ĠFrench": 4383,
      "Ġfigures": 4384,
      "Ġduchow": 4385,
      "olit": 4386,
      "Ġkatolicki": 4387,
      "Ġbritann": 4388,
      "ĠReich": 4389,
      "that": 4390,
      "Ġdich": 4391,
      "Ġonde": 4392,
      "ĠrÃ©alis": 4393,
      "Ġsia": 4394,
      "Ġrit": 4395,
      "ientes": 4396,
      "oden": 4397,
      "ĠThen": 4398,
      "uzione": 4399,
      "Ġsystems": 4400,
      "ĠSil": 4401,
      "alax": 4402,
      "lim": 4403,
      "Pro": 4404,
      "Ġhol": 4405,
      "Ġaos": 4406,
      "pÃºblica": 4407,
      "ining": 4408,
      "ĠczÅĤ": 4409,
      "aires": 4410,
      "Ġsistem": 4411,
      "Ġcolor": 4412,
      "ĠMay": 4413,
      "acja": 4414,
      "Ã¡ria": 4415,
      "Ġimpl": 4416,
      "ĠRepub": 4417,
      "Ġzoals": 4418,
      "Ġseiner": 4419,
      "Ġcham": 4420,
      ">,": 4421,
      "Ġjus": 4422,
      "Ġwat": 4423,
      "Ġcit": 4424,
      "ĠaprÃ¨s": 4425,
      "Ã´le": 4426,
      "ÃŃpio": 4427,
      "Ġspr": 4428,
      "Ġzaw": 4429,
      "Ġelle": 4430,
      "ogr": 4431,
      "isl": 4432,
      "beeld": 4433,
      "ĠLouis": 4434,
      "Ã¡tico": 4435,
      "Ġcharacter": 4436,
      "ĠGeb": 4437,
      "ÃŃd": 4438,
      "Ġsmall": 4439,
      "cki": 4440,
      "Ġperspect": 4441,
      "Ã±a": 4442,
      "Ġkwiet": 4443,
      "Ġright": 4444,
      "Ð¾": 4445,
      "Ġaktorka": 4446,
      "Ġmayor": 4447,
      "idence": 4448,
      "lection": 4449,
      "ĠMad": 4450,
      "Ġsex": 4451,
      "Ġalors": 4452,
      "ints": 4453,
      "rier": 4454,
      "Ġmeas": 4455,
      "iens": 4456,
      "Ġdimens": 4457,
      "vil": 4458,
      "ĠSud": 4459,
      "Ġdonde": 4460,
      "rÃ¤": 4461,
      "ients": 4462,
      "Ġobtain": 4463,
      "ĠChina": 4464,
      "Ġ1975": 4465,
      "ĠAst": 4466,
      "rog": 4467,
      "Ġ1983": 4468,
      "glich": 4469,
      "Ġpian": 4470,
      "Ġmajor": 4471,
      "ĠMichael": 4472,
      "ĠBor": 4473,
      "ĠLud": 4474,
      "rix": 4475,
      "Ġintegr": 4476,
      "ĠperÃŃ": 4477,
      "79": 4478,
      "ĠRichard": 4479,
      "ĠTa": 4480,
      "frica": 4481,
      "Ġserie": 4482,
      "Pl": 4483,
      "ĠDans": 4484,
      "ĠVor": 4485,
      "ĠAng": 4486,
      "anden": 4487,
      "ahn": 4488,
      "ĠFeder": 4489,
      "amin": 4490,
      "ĠOd": 4491,
      "arono": 4492,
      "aste": 4493,
      "iller": 4494,
      "ĠJoseph": 4495,
      "Ġgeme": 4496,
      "acy": 4497,
      "Ġtom": 4498,
      "ĠShe": 4499,
      "uten": 4500,
      "yen": 4501,
      "Ġiniz": 4502,
      "Ġneut": 4503,
      "Ġduchowny": 4504,
      "Ġgar": 4505,
      "iding": 4506,
      "ually": 4507,
      "Ġmoment": 4508,
      "Ġexample": 4509,
      "Ġtent": 4510,
      "Ġlarg": 4511,
      "Ġampl": 4512,
      "Ġmust": 4513,
      "zek": 4514,
      "ĠdÃ©s": 4515,
      "imal": 4516,
      "Ã¼d": 4517,
      "chni": 4518,
      "ismus": 4519,
      "Ġreligios": 4520,
      "ĠSoc": 4521,
      "Ġhistori": 4522,
      "64": 4523,
      "enc": 4524,
      "Ġconqu": 4525,
      "Ġprat": 4526,
      "ush": 4527,
      "ĠFried": 4528,
      "irk": 4529,
      "ĠaÃ±o": 4530,
      "ieve": 4531,
      "^{": 4532,
      "oms": 4533,
      "lav": 4534,
      "Ġ1940": 4535,
      "Ġbound": 4536,
      "ĠWelt": 4537,
      "Ġplusieurs": 4538,
      "Ãīt": 4539,
      "ĠUS": 4540,
      "Ġhouse": 4541,
      "ichel": 4542,
      "ĠMos": 4543,
      "Ġpoeta": 4544,
      "ĠsÃ©culo": 4545,
      "Ġrecher": 4546,
      "ĠreprÃ©sent": 4547,
      "Ġdoes": 4548,
      "Ġwhile": 4549,
      "Ġfour": 4550,
      "Ġfat": 4551,
      "Ġ1973": 4552,
      "anno": 4553,
      "Ġwithout": 4554,
      "agement": 4555,
      "ĠHij": 4556,
      "ket": 4557,
      "Ġrag": 4558,
      "ids": 4559,
      "Ġpower": 4560,
      "ÂłÂł": 4561,
      "tek": 4562,
      "aco": 4563,
      "Ġprimera": 4564,
      "ĠBra": 4565,
      "igur": 4566,
      "ĠHand": 4567,
      "nam": 4568,
      "Ġgior": 4569,
      "atti": 4570,
      "Euro": 4571,
      "izaciÃ³n": 4572,
      "ĠBeg": 4573,
      "bes": 4574,
      "Ġhor": 4575,
      "igkeit": 4576,
      "Ġcomplet": 4577,
      "chten": 4578,
      "yste": 4579,
      "Ġwyd": 4580,
      "hard": 4581,
      "ĠGar": 4582,
      "ĠRio": 4583,
      "Ġtiene": 4584,
      "ordin": 4585,
      "idge": 4586,
      "05": 4587,
      "Ġcerca": 4588,
      "Com": 4589,
      "uno": 4590,
      "Ġgegen": 4591,
      "Ġmonde": 4592,
      "ĠCont": 4593,
      "Ġagosto": 4594,
      "ĠNel": 4595,
      "ÅĽnia": 4596,
      "Ġceleb": 4597,
      "ĠWer": 4598,
      "yes": 4599,
      "ager": 4600,
      "Ġposition": 4601,
      "Ġcapit": 4602,
      "ĠRÃ©": 4603,
      "Ġwys": 4604,
      "Ġturn": 4605,
      "beit": 4606,
      "ategorÃŃa": 4607,
      "Ġsw": 4608,
      "Ġtel": 4609,
      "ĠMartin": 4610,
      "ÅĦskiego": 4611,
      "Ġletter": 4612,
      "Ġfavor": 4613,
      "Ġkwietnia": 4614,
      "Ġvariab": 4615,
      "ĠTeil": 4616,
      "Ġastron": 4617,
      "Ġ1939": 4618,
      "mio": 4619,
      "Ġemb": 4620,
      "Ã´t": 4621,
      "usa": 4622,
      "Ġjud": 4623,
      "Ġbreak": 4624,
      "Ġconten": 4625,
      "Ġraz": 4626,
      "Ġlud": 4627,
      "Ã¶s": 4628,
      "Ġmaja": 4629,
      "Ġ1974": 4630,
      "Ġgrote": 4631,
      "Ġterritorio": 4632,
      "Ġdeel": 4633,
      "Ã¤h": 4634,
      "rito": 4635,
      "ĠKarl": 4636,
      "Ġfaz": 4637,
      "ierno": 4638,
      "ÅĽcie": 4639,
      "zna": 4640,
      "ĠFra": 4641,
      "Ġ35": 4642,
      "Ġtrop": 4643,
      "imp": 4644,
      "Ġ1976": 4645,
      "Ġexem": 4646,
      "Ġya": 4647,
      "ape": 4648,
      "Ġgrud": 4649,
      "ney": 4650,
      "irm": 4651,
      "porte": 4652,
      "iele": 4653,
      "Ġmuit": 4654,
      "Ġvir": 4655,
      "Ġef": 4656,
      "Mar": 4657,
      "Ġpesso": 4658,
      "96": 4659,
      "ĠSin": 4660,
      "ĠUnited": 4661,
      "Ġtheory": 4662,
      "98": 4663,
      "ases": 4664,
      "Ã©ration": 4665,
      "uti": 4666,
      "vang": 4667,
      "Ġnam": 4668,
      "Ġrun": 4669,
      "Ġave": 4670,
      "ej": 4671,
      "ĠCette": 4672,
      "antal": 4673,
      "Ġnav": 4674,
      "Ġimplement": 4675,
      "ĠUnter": 4676,
      "aban": 4677,
      "comp": 4678,
      "reur": 4679,
      "ordo": 4680,
      "Ġ1978": 4681,
      "ÃŃculo": 4682,
      "ĠdÃ©velopp": 4683,
      "Ġich": 4684,
      "AP": 4685,
      "alls": 4686,
      "Ġappl": 4687,
      "Ġproduction": 4688,
      "Ġsans": 4689,
      "alth": 4690,
      "Ġgreat": 4691,
      "ypt": 4692,
      "Ġwithin": 4693,
      "mb": 4694,
      "ĠNar": 4695,
      "Ġcho": 4696,
      "ijs": 4697,
      "Ãªncias": 4698,
      "Ġ1977": 4699,
      "agog": 4700,
      "endre": 4701,
      "Ġsimple": 4702,
      "isa": 4703,
      "Ġtransform": 4704,
      "ĠSk": 4705,
      "ĠÂ°": 4706,
      "Ġfont": 4707,
      "ĠDit": 4708,
      "ĠâĢĺ": 4709,
      "Ġown": 4710,
      "rouw": 4711,
      "bon": 4712,
      "Ġfine": 4713,
      "Ġcab": 4714,
      "ienen": 4715,
      "tres": 4716,
      "Ġconv": 4717,
      "ĠFrancisco": 4718,
      "Ġsm": 4719,
      "rieg": 4720,
      "Ġviv": 4721,
      "ĠHenry": 4722,
      "Ġcount": 4723,
      "Ġproc": 4724,
      "Ġmentre": 4725,
      "Ġsymbol": 4726,
      "Der": 4727,
      "Ġcri": 4728,
      "quer": 4729,
      "Ġstor": 4730,
      "Ġ1930": 4731,
      "Ġstycznia": 4732,
      "icana": 4733,
      "Ġville": 4734,
      "Ã´n": 4735,
      "fil": 4736,
      ")</": 4737,
      "uelle": 4738,
      "Ġmenos": 4739,
      "Ġcorre": 4740,
      "Ġdenomin": 4741,
      "ined": 4742,
      "forman": 4743,
      "aÅ¼": 4744,
      "xico": 4745,
      "Ġsimilar": 4746,
      "Ġproduc": 4747,
      "Ġjournal": 4748,
      "ĠasÃŃ": 4749,
      "ĠCes": 4750,
      "ahre": 4751,
      "Ġlekko": 4752,
      "Ġquel": 4753,
      "ibile": 4754,
      "Os": 4755,
      "Ġseit": 4756,
      "volg": 4757,
      "iedz": 4758,
      "oty": 4759,
      "Ġneed": 4760,
      "Ġchildren": 4761,
      "ĠHel": 4762,
      "ĠuÅ¼y": 4763,
      "veral": 4764,
      "ogrÃ¡f": 4765,
      "unst": 4766,
      "ball": 4767,
      "fen": 4768,
      "Con": 4769,
      "ĠIr": 4770,
      "with": 4771,
      "ĠBre": 4772,
      "egu": 4773,
      "ĠprÃ©sident": 4774,
      "Ġwrze": 4775,
      "nieÅ¼": 4776,
      "Ġwent": 4777,
      "Ġbelang": 4778,
      "isti": 4779,
      "irs": 4780,
      "Ġstandard": 4781,
      "Ġdieser": 4782,
      "usammen": 4783,
      "ĠAk": 4784,
      "Ġalgorithm": 4785,
      "ÃŃo": 4786,
      "ech": 4787,
      "Ġllam": 4788,
      "dom": 4789,
      "owany": 4790,
      "Ġ1968": 4791,
      "ĠbritÃ¡n": 4792,
      "Or": 4793,
      "ĠLang": 4794,
      "Ġcast": 4795,
      "Ġgeen": 4796,
      "iels": 4797,
      "Ġoccup": 4798,
      "oung": 4799,
      "xte": 4800,
      "issance": 4801,
      "count": 4802,
      "Ġpunto": 4803,
      "Ġhem": 4804,
      "ofd": 4805,
      "Ġtecn": 4806,
      "Ġfollowing": 4807,
      "ention": 4808,
      "dzier": 4809,
      "Ġvolta": 4810,
      "ving": 4811,
      "Ġaliment": 4812,
      "Ġgive": 4813,
      "ÃŃstica": 4814,
      "ieke": 4815,
      "Ġjednak": 4816,
      "Ġpil": 4817,
      "ĠBundes": 4818,
      "ived": 4819,
      "prowad": 4820,
      "ĠPub": 4821,
      "Ġcient": 4822,
      "mento": 4823,
      "uman": 4824,
      "Ġ80": 4825,
      "Ġextra": 4826,
      "Ġlekkoat": 4827,
      "Ð°": 4828,
      "Ġmel": 4829,
      "Ġseine": 4830,
      "Ġperman": 4831,
      "ĠcÃ©l": 4832,
      "87": 4833,
      "bur": 4834,
      "edes": 4835,
      "Ġguerre": 4836,
      "ĠUSA": 4837,
      "Ġfundament": 4838,
      "====": 4839,
      "oem": 4840,
      "Ġconditions": 4841,
      "miniatur": 4842,
      "ĠHans": 4843,
      "ruz": 4844,
      "iza": 4845,
      "Ġ1972": 4846,
      "Ġfest": 4847,
      "ĠRome": 4848,
      "ask": 4849,
      "band": 4850,
      "ĠDeutschland": 4851,
      "Ġproject": 4852,
      "Ã¤d": 4853,
      "Ġgeh": 4854,
      "Ġhaar": 4855,
      "ĠWiel": 4856,
      "ĠGra": 4857,
      "Ġmias": 4858,
      "Ġvenne": 4859,
      "Ġcivil": 4860,
      "Ġactual": 4861,
      "Ġkind": 4862,
      "ĠTex": 4863,
      "ĠSpa": 4864,
      "Ġdello": 4865,
      "Ġgio": 4866,
      "iteit": 4867,
      "owanie": 4868,
      "dat": 4869,
      "kel": 4870,
      "ufen": 4871,
      "Ġainda": 4872,
      "Ġpubl": 4873,
      "Ġfoc": 4874,
      "Ġpur": 4875,
      "Ġbomb": 4876,
      "Ġmulti": 4877,
      "ĠamerykaÅĦska": 4878,
      "iot": 4879,
      "etic": 4880,
      "uve": 4881,
      "Ġforme": 4882,
      "Ġembar": 4883,
      "athol": 4884,
      "Ġanci": 4885,
      "Ġquanto": 4886,
      "Ġcausa": 4887,
      "97": 4888,
      "my": 4889,
      "rip": 4890,
      "aca": 4891,
      "Ġbit": 4892,
      "Ġlin": 4893,
      "Amer": 4894,
      "Ġvin": 4895,
      "Ġleft": 4896,
      "ĠTem": 4897,
      "zt": 4898,
      "usion": 4899,
      "Ġmondiale": 4900,
      "enso": 4901,
      "Ġdai": 4902,
      "ĠpaÅĦst": 4903,
      "icy": 4904,
      "Ġcollect": 4905,
      "Åºdzier": 4906,
      ">.": 4907,
      "ĠFilm": 4908,
      "gew": 4909,
      "Ġsupport": 4910,
      "ĠOrgan": 4911,
      "Ġzona": 4912,
      "ĠAlg": 4913,
      "Ã³Å¼": 4914,
      "owÄħ": 4915,
      "Ġczerwca": 4916,
      "Â²": 4917,
      "Ġescritor": 4918,
      "bst": 4919,
      "Ġamong": 4920,
      "estra": 4921,
      "Ġult": 4922,
      "Ġswo": 4923,
      "Ġjun": 4924,
      "uba": 4925,
      "ulas": 4926,
      "Ġgal": 4927,
      "ĠRod": 4928,
      "Ġdescrib": 4929,
      "===": 4930,
      "Ġ1971": 4931,
      "Â»,": 4932,
      "Ġpresente": 4933,
      "EN": 4934,
      "ĠKing": 4935,
      "etzt": 4936,
      "ĠInternational": 4937,
      "ĠÃĢ": 4938,
      "Ġplay": 4939,
      "ĠCop": 4940,
      "Ġgrupo": 4941,
      "erm": 4942,
      "Ġprincipalmente": 4943,
      "ĠregiÃ£o": 4944,
      "Ġnumer": 4945,
      "\">": 4946,
      "Ġcompl": 4947,
      "92": 4948,
      "owski": 4949,
      "war": 4950,
      "ĠDu": 4951,
      "iser": 4952,
      "Ġmant": 4953,
      "Ġwieku": 4954,
      "Ġprotest": 4955,
      "Ġconse": 4956,
      "ĠRepÃºblica": 4957,
      "Ġaltri": 4958,
      "84": 4959,
      "cript": 4960,
      "Ġmap": 4961,
      "Ġpose": 4962,
      "Ġfen": 4963,
      "ĠLeg": 4964,
      ".:": 4965,
      "ĠVers": 4966,
      "Ġ1969": 4967,
      "jm": 4968,
      "Ġlistop": 4969,
      "ĠPhilip": 4970,
      "rsg": 4971,
      "Ġfront": 4972,
      "issenschaft": 4973,
      "83": 4974,
      "93": 4975,
      "Ġfort": 4976,
      "Ġgez": 4977,
      "Ġdesenvolv": 4978,
      "Ġsince": 4979,
      "Ġzanger": 4980,
      "He": 4981,
      "Ġtego": 4982,
      "ĠpaÅºdzier": 4983,
      "Ġmilitar": 4984,
      "Ġclim": 4985,
      "ental": 4986,
      "Ġenviron": 4987,
      "Ġdirig": 4988,
      "Ġgrudnia": 4989,
      "Ġpen": 4990,
      "Ġtiem": 4991,
      "ĠDec": 4992,
      "Ġlung": 4993,
      "Ġsan": 4994,
      "Ġged": 4995,
      "aal": 4996,
      "Ġmechan": 4997,
      "Ã©tique": 4998,
      "ibles": 4999,
      "Ġtravail": 5000,
      "ĠGran": 5001,
      "Ġmesmo": 5002,
      "ĠCat": 5003,
      "jes": 5004,
      "Ġple": 5005,
      "Ġempres": 5006,
      "usta": 5007,
      "Ġ===": 5008,
      "var": 5009,
      "ĠÃītats": 5010,
      "Ġscen": 5011,
      "htt": 5012,
      "Ġmart": 5013,
      "ceed": 5014,
      "ĠNobel": 5015,
      "Ġmarzo": 5016,
      "hmen": 5017,
      "ington": 5018,
      "orre": 5019,
      "Ġling": 5020,
      "cal": 5021,
      "Ġkunnen": 5022,
      "Ġtill": 5023,
      "izer": 5024,
      "igi": 5025,
      "Ġrecent": 5026,
      "ĠrÃ©f": 5027,
      "ĠXIX": 5028,
      "Ġpobl": 5029,
      "adrid": 5030,
      "ÅĤÄħcz": 5031,
      "ired": 5032,
      "ads": 5033,
      "ĠLo": 5034,
      "Ġold": 5035,
      "pus": 5036,
      "Ġnast": 5037,
      "Ġdif": 5038,
      "iny": 5039,
      "chte": 5040,
      "82": 5041,
      "bie": 5042,
      "Ġmuy": 5043,
      "ÃŃcio": 5044,
      "Ġlast": 5045,
      "Ġdiret": 5046,
      "Ġpermet": 5047,
      "Ġprimeiro": 5048,
      "ĠTom": 5049,
      "waÅ¼": 5050,
      "ĠÃ©conom": 5051,
      "kc": 5052,
      "ĠCarlos": 5053,
      "Ġfreguesia": 5054,
      "ube": 5055,
      "ienie": 5056,
      "Ġtu": 5057,
      "opo": 5058,
      "Ġtake": 5059,
      "text": 5060,
      "uck": 5061,
      "lymp": 5062,
      "blico": 5063,
      "ĠmoÅ¼": 5064,
      "Ġsierp": 5065,
      "olar": 5066,
      "Ġvic": 5067,
      "CategorÃŃa": 5068,
      "Ġshort": 5069,
      "Ġorganis": 5070,
      "Ã¡rias": 5071,
      "yg": 5072,
      "Ġjul": 5073,
      "Ã¼nd": 5074,
      "zec": 5075,
      "ĠÃ¤": 5076,
      "owo": 5077,
      "Ġeing": 5078,
      "jÄħcy": 5079,
      "Ġexplor": 5080,
      "ĠBrits": 5081,
      "Ã©ment": 5082,
      "Ã¶ÃŁ": 5083,
      "Ġano": 5084,
      "lor": 5085,
      "ĠOk": 5086,
      "ÅĽl": 5087,
      "ĠSystem": 5088,
      "Ġuntil": 5089,
      "Ġquale": 5090,
      "ĠMas": 5091,
      "lijk": 5092,
      "Ã¤nder": 5093,
      "Ġapenas": 5094,
      "Ġgem": 5095,
      "ĠpuÃ²": 5096,
      "ĠRoman": 5097,
      "Ġdot": 5098,
      "eles": 5099,
      "ĠDeze": 5100,
      "werk": 5101,
      "Ġmunicip": 5102,
      "Ð¸": 5103,
      "ĠperÃŃodo": 5104,
      "olas": 5105,
      "Ġcultura": 5106,
      "Ġparl": 5107,
      "ĠwrzeÅĽnia": 5108,
      "aneiro": 5109,
      "ifor": 5110,
      "Ġfrancuski": 5111,
      "Ġfilos": 5112,
      "Ġpowst": 5113,
      "67": 5114,
      "94": 5115,
      "ĠNot": 5116,
      "light": 5117,
      "uma": 5118,
      "Ġsold": 5119,
      "ĠGrande": 5120,
      "ĠHowever": 5121,
      "Ġmight": 5122,
      "iani": 5123,
      "Ġlute": 5124,
      "Ġcondu": 5125,
      "akter": 5126,
      "Ġ000": 5127,
      "Ġrozp": 5128,
      "pression": 5129,
      "Ġparam": 5130,
      "Nel": 5131,
      "Ġcod": 5132,
      "cza": 5133,
      "rument": 5134,
      "ege": 5135,
      "Ġzam": 5136,
      "Ġhabitantes": 5137,
      ":<": 5138,
      "asser": 5139,
      "Ġnear": 5140,
      "Ġvalue": 5141,
      "ID": 5142,
      "Ġinstrument": 5143,
      "Ġcirca": 5144,
      "Ġstill": 5145,
      "fahr": 5146,
      "uent": 5147,
      "Ġdzie": 5148,
      "oks": 5149,
      "ĠMach": 5150,
      "ĠBro": 5151,
      "Ġdiese": 5152,
      "ĠCr": 5153,
      "nov": 5154,
      "Ġespac": 5155,
      "Ġmuito": 5156,
      "leur": 5157,
      "Ġenqu": 5158,
      "Ġpoi": 5159,
      "buch": 5160,
      "Ġbil": 5161,
      "ĠSm": 5162,
      "ĠkrÃ³": 5163,
      "ĠPara": 5164,
      "Ġjedoch": 5165,
      "ei": 5166,
      "Ġnumero": 5167,
      "Ġspecial": 5168,
      "oby": 5169,
      "ĠLeon": 5170,
      "vas": 5171,
      "Ġnous": 5172,
      "Ġinternational": 5173,
      "ĠeuropÃ©": 5174,
      "Ġ1920": 5175,
      "Ġ1967": 5176,
      "ĠCur": 5177,
      "sin": 5178,
      "Ġpodem": 5179,
      "cont": 5180,
      "Ã©qu": 5181,
      "Ġgraph": 5182,
      "Ġpresident": 5183,
      "Ġentry": 5184,
      "Ġvi": 5185,
      "aven": 5186,
      "Ġspecific": 5187,
      "Ġresist": 5188,
      "Ġmex": 5189,
      "Ġidea": 5190,
      "aga": 5191,
      "Ġentr": 5192,
      "ĠFest": 5193,
      "Ġtradition": 5194,
      "Ġhanno": 5195,
      "Ġhatte": 5196,
      "reja": 5197,
      "ĠCz": 5198,
      "iesa": 5199,
      "Ġmodels": 5200,
      "obierno": 5201,
      "ĠrÃ³wnieÅ¼": 5202,
      "Ġreci": 5203,
      "Ġtend": 5204,
      "Ġcres": 5205,
      "Ġveloc": 5206,
      "alitÃ©": 5207,
      "ietÃł": 5208,
      "GE": 5209,
      "Ġfino": 5210,
      "Ã³j": 5211,
      "Af": 5212,
      "Ġattra": 5213,
      "nymi": 5214,
      "del": 5215,
      "Ġdois": 5216,
      "wik": 5217,
      "stadt": 5218,
      "Ġproced": 5219,
      "ĠfÃŃs": 5220,
      "estand": 5221,
      "Ġtemps": 5222,
      "Ġpi": 5223,
      "Ġzelf": 5224,
      "Ġstart": 5225,
      "Ġperiodo": 5226,
      "ĠPan": 5227,
      "ÃŃp": 5228,
      "Ġzach": 5229,
      "ĠÃ©tait": 5230,
      "68": 5231,
      "Ġban": 5232,
      "ivis": 5233,
      "orig": 5234,
      "Ġoficial": 5235,
      "Ġcorr": 5236,
      "atos": 5237,
      "order": 5238,
      "ohn": 5239,
      "arr": 5240,
      "Ġlipca": 5241,
      "Ðµ": 5242,
      "Ġwest": 5243,
      "less": 5244,
      "pozy": 5245,
      "gior": 5246,
      "allo": 5247,
      "ĠLondon": 5248,
      "erior": 5249,
      "Ġthings": 5250,
      "Ġ1941": 5251,
      "Ġ70": 5252,
      "Ġoriginal": 5253,
      "Ġlot": 5254,
      "Ġcultural": 5255,
      "Ġlutego": 5256,
      "Ġwords": 5257,
      "ĠJahre": 5258,
      "Ġadapt": 5259,
      "ÃŃsticas": 5260,
      "Ġfrag": 5261,
      "iaÅĤa": 5262,
      "rew": 5263,
      "Ã§ois": 5264,
      "sce": 5265,
      "icia": 5266,
      "adora": 5267,
      "eres": 5268,
      "Ġindustr": 5269,
      "Ġrapport": 5270,
      "ĠpoÅĤ": 5271,
      "ĠAmÃ©rica": 5272,
      ">(": 5273,
      "Chr": 5274,
      "Ġ1946": 5275,
      "Ġdove": 5276,
      "Ġput": 5277,
      "ĠÃ©poca": 5278,
      "Ġber": 5279,
      "Sch": 5280,
      "ĠDom": 5281,
      "Ġ..": 5282,
      "ference": 5283,
      "Ġbem": 5284,
      "ĠMer": 5285,
      "wiÄĻ": 5286,
      "udi": 5287,
      "yser": 5288,
      "Ġ1966": 5289,
      "Ġsegundo": 5290,
      "het": 5291,
      "We": 5292,
      "ĠSul": 5293,
      "Ã¼t": 5294,
      "ĠÃ©v": 5295,
      "Ġfron": 5296,
      "elho": 5297,
      "ientos": 5298,
      "ĠMÃ¼nchen": 5299,
      "72": 5300,
      "Ã¡vel": 5301,
      "velle": 5302,
      "Ã¤s": 5303,
      "On": 5304,
      "ĠHal": 5305,
      "Est": 5306,
      "ĠdÃ©par": 5307,
      "Ġ1943": 5308,
      "Ã¤l": 5309,
      "Ġrol": 5310,
      "Ġhere": 5311,
      "Ġsempre": 5312,
      "kiego": 5313,
      "Ãªm": 5314,
      "ify": 5315,
      "ĠpaÅºdziernika": 5316,
      "Ġadministrat": 5317,
      "Ġmean": 5318,
      "icio": 5319,
      "Ġmec": 5320,
      "Ġargument": 5321,
      "ĠBay": 5322,
      "Ġzb": 5323,
      "Ġwereld": 5324,
      "Äģ": 5325,
      "ĠErn": 5326,
      "uar": 5327,
      "ĠBet": 5328,
      "atives": 5329,
      "onais": 5330,
      "ĠkÃ¶nnen": 5331,
      "dem": 5332,
      "Ġvalor": 5333,
      "not": 5334,
      "gende": 5335,
      "ĠFig": 5336,
      "Ġdete": 5337,
      "Ġformat": 5338,
      "Ġaim": 5339,
      "Ġocup": 5340,
      "Ġmolto": 5341,
      "Ġzone": 5342,
      "aleÅ¼": 5343,
      "orso": 5344,
      "orf": 5345,
      "Ġcaract": 5346,
      "Ġencontr": 5347,
      "iÃ¨me": 5348,
      "ĠEngl": 5349,
      "Ġsond": 5350,
      "naj": 5351,
      "Ġfix": 5352,
      "Ġtres": 5353,
      "Ġfeb": 5354,
      "Ġ1936": 5355,
      "Ġmedia": 5356,
      "Ġgrav": 5357,
      "ĠFir": 5358,
      "And": 5359,
      "ĠĠĊ": 5360,
      "Ġarqu": 5361,
      "Ġstrateg": 5362,
      "Ġcandid": 5363,
      "uela": 5364,
      "ĠmiÄĻdzy": 5365,
      "Ġanderen": 5366,
      "ĠMadrid": 5367,
      "Ġ1942": 5368,
      "01": 5369,
      "Ġgram": 5370,
      "Ġwieder": 5371,
      "Âª": 5372,
      "Ġprezy": 5373,
      "ĠMic": 5374,
      "Ġpelos": 5375,
      "Ġ1964": 5376,
      "Ġ1962": 5377,
      "ĠKl": 5378,
      ".):": 5379,
      "Ġantes": 5380,
      "jal": 5381,
      "ĠÃ©lect": 5382,
      "Ġexperien": 5383,
      "Ġnouve": 5384,
      "ĠZwe": 5385,
      "Ġartic": 5386,
      "ning": 5387,
      "Na": 5388,
      "Ġdy": 5389,
      "Ġdeutsch": 5390,
      "irtschaft": 5391,
      "ĠMÃ©xico": 5392,
      "ĠdÃ©but": 5393,
      "ÙĦ": 5394,
      "No": 5395,
      "ĠPod": 5396,
      "illo": 5397,
      "Ġregion": 5398,
      "Ġlogic": 5399,
      "Ġunderstand": 5400,
      "ĠCamb": 5401,
      "ĠMex": 5402,
      "Ġzwei": 5403,
      "ĠLeb": 5404,
      "into": 5405,
      "Ver": 5406,
      "Åĵ": 5407,
      "Ġarte": 5408,
      "?âĢĿ": 5409,
      "Ġavant": 5410,
      "szyst": 5411,
      "ways": 5412,
      "sko": 5413,
      "Ã¼ss": 5414,
      "kup": 5415,
      "Ġtow": 5416,
      "aug": 5417,
      "uns": 5418,
      "wia": 5419,
      "ĠÂ».": 5420,
      "halten": 5421,
      "IA": 5422,
      "Ġ1948": 5423,
      "Ãītat": 5424,
      "81": 5425,
      "appen": 5426,
      "Es": 5427,
      "Ġmomento": 5428,
      "kop": 5429,
      "crit": 5430,
      "kre": 5431,
      "Ġoften": 5432,
      "ĠFilip": 5433,
      "Ġsierpnia": 5434,
      "Ġrend": 5435,
      "ĠzwiÄħz": 5436,
      "71": 5437,
      "ĠMig": 5438,
      "cyj": 5439,
      "uge": 5440,
      "Ġvit": 5441,
      "Ġpueden": 5442,
      "puÃ©s": 5443,
      "jÄħcych": 5444,
      ")|": 5445,
      "Ġdentro": 5446,
      "yth": 5447,
      "ĠSel": 5448,
      "odos": 5449,
      "ĠMen": 5450,
      "Ġquella": 5451,
      "Ġextre": 5452,
      "ĠMill": 5453,
      "91": 5454,
      "eln": 5455,
      "Ġpint": 5456,
      "ĠpÃ©ri": 5457,
      "unde": 5458,
      "Ġ90": 5459,
      "Ġaspect": 5460,
      "hab": 5461,
      "indi": 5462,
      "ĠNederlandse": 5463,
      "Ġstaat": 5464,
      "Ġinsp": 5465,
      "ĠPra": 5466,
      "Ã»": 5467,
      "ĠKo": 5468,
      "Ġbatt": 5469,
      "Ġpie": 5470,
      "ĠEntre": 5471,
      "agon": 5472,
      "ĠWind": 5473,
      "Ġ45": 5474,
      "Ġcostr": 5475,
      "Ġanother": 5476,
      "har": 5477,
      "iest": 5478,
      "ĠfrancÃ©s": 5479,
      "rÃ³d": 5480,
      "Ġbesta": 5481,
      "Ġpan": 5482,
      "cip": 5483,
      "Ġsen": 5484,
      "rict": 5485,
      "Ġnap": 5486,
      "inta": 5487,
      "ĠartÃŃculo": 5488,
      "wod": 5489,
      "Ġcul": 5490,
      "wski": 5491,
      "Ġoffer": 5492,
      "Ġconstruction": 5493,
      "ĠHitler": 5494,
      "itation": 5495,
      "ĠprÃ©sent": 5496,
      "imos": 5497,
      "ĠMel": 5498,
      "Ġintens": 5499,
      "Ġlearn": 5500,
      "Ġfab": 5501,
      "Ġcomer": 5502,
      "Ġ1933": 5503,
      "emein": 5504,
      "lagen": 5505,
      "lished": 5506,
      "Ġdedic": 5507,
      "Ġelektr": 5508,
      "icl": 5509,
      "abor": 5510,
      "ĠLiter": 5511,
      "Ġweiter": 5512,
      "aus": 5513,
      "Ġstesso": 5514,
      "esz": 5515,
      "ĠHier": 5516,
      "pois": 5517,
      "etup": 5518,
      "Ġapresent": 5519,
      "Ġprecis": 5520,
      "zig": 5521,
      "lant": 5522,
      "istische": 5523,
      "ĠAntonio": 5524,
      "Ġ1961": 5525,
      "ĠJahren": 5526,
      "utes": 5527,
      "74": 5528,
      "onen": 5529,
      "Ġkole": 5530,
      "aften": 5531,
      "ĠMu": 5532,
      "Ġrich": 5533,
      "Ġesem": 5534,
      "jekt": 5535,
      "Ġlistopada": 5536,
      "ged": 5537,
      "Ġay": 5538,
      "uppe": 5539,
      "Ġcaratter": 5540,
      "Ã¡nd": 5541,
      "hÃ¤": 5542,
      "onc": 5543,
      "vilup": 5544,
      "CO": 5545,
      "rif": 5546,
      "erda": 5547,
      "sto": 5548,
      "Ġ1965": 5549,
      "ieu": 5550,
      "Ġsecondo": 5551,
      "ail": 5552,
      "Ġnieuwe": 5553,
      "Ġprimeira": 5554,
      "Ġexplic": 5555,
      "unden": 5556,
      "Ġstra": 5557,
      "Ġul": 5558,
      "Ġprofes": 5559,
      "ossa": 5560,
      "orno": 5561,
      "onych": 5562,
      "gro": 5563,
      "Ġ1963": 5564,
      "Ãªt": 5565,
      "Ġcompet": 5566,
      "ologique": 5567,
      "sterd": 5568,
      "plac": 5569,
      "enze": 5570,
      "Ġmorte": 5571,
      "ĠBur": 5572,
      "Ġmismo": 5573,
      "ierten": 5574,
      "aci": 5575,
      "53": 5576,
      "Ġconstra": 5577,
      "ĠlÃ©g": 5578,
      "Ġautres": 5579,
      "Ġdistribu": 5580,
      "Ġknowledge": 5581,
      "Ġtab": 5582,
      "73": 5583,
      "ĠJud": 5584,
      "IT": 5585,
      "Ġbrytyjski": 5586,
      ".),": 5587,
      "ĠPolit": 5588,
      "Ġdemon": 5589,
      "itional": 5590,
      "ĠEsp": 5591,
      "Ġactriz": 5592,
      "ondo": 5593,
      "Ã³ria": 5594,
      "Ġmand": 5595,
      "Ġseveral": 5596,
      "Ã¡ct": 5597,
      "ĠÃłs": 5598,
      "Ġprocesso": 5599,
      "Hrsg": 5600,
      "xe": 5601,
      "Ã¨le": 5602,
      "Ġoutras": 5603,
      "atures": 5604,
      "Ġec": 5605,
      "Ġgan": 5606,
      "Ġaway": 5607,
      "atre": 5608,
      "chem": 5609,
      "ĠPhys": 5610,
      "ecer": 5611,
      "ĠSpan": 5612,
      "ĠrÃ³Å¼": 5613,
      "Ġencore": 5614,
      "Ġjej": 5615,
      "ecut": 5616,
      "ories": 5617,
      "roc": 5618,
      "ĠComput": 5619,
      "owiec": 5620,
      "56": 5621,
      "ĠCong": 5622,
      "uct": 5623,
      "IN": 5624,
      "dia": 5625,
      "Ã¡g": 5626,
      "Ã¡ticas": 5627,
      "Ã§os": 5628,
      "ĠdÃ©m": 5629,
      "Ġindustri": 5630,
      "range": 5631,
      "ĠGrund": 5632,
      "Ġjusqu": 5633,
      "Ġdise": 5634,
      "ĠGiovan": 5635,
      "ieux": 5636,
      "Ġmoins": 5637,
      "idi": 5638,
      "Ġtodas": 5639,
      "Ã©tr": 5640,
      "ried": 5641,
      "rec": 5642,
      "andom": 5643,
      "Ġ1947": 5644,
      "Qu": 5645,
      "autres": 5646,
      "elde": 5647,
      "Ġsatisf": 5648,
      "Ġlum": 5649,
      "Ġjug": 5650,
      "ĠwÅĤoski": 5651,
      "Ġfois": 5652,
      "Ġud": 5653,
      "ĠcaÅĤ": 5654,
      "Ġatom": 5655,
      "rica": 5656,
      "Ġost": 5657,
      "Ġtrib": 5658,
      "Ġsvilup": 5659,
      "Ġresol": 5660,
      "ĠAir": 5661,
      "ĠFlor": 5662,
      "orlog": 5663,
      "Ġcuando": 5664,
      "Ġrecherche": 5665,
      "Ġpok": 5666,
      "CH": 5667,
      "Ġkoszy": 5668,
      "Ġkoning": 5669,
      "ĠNatur": 5670,
      "pet": 5671,
      "www": 5672,
      "erland": 5673,
      "Ġcle": 5674,
      "Ġembargo": 5675,
      "Ġurban": 5676,
      "ination": 5677,
      "Ġwerk": 5678,
      "Ġurb": 5679,
      "pis": 5680,
      "oman": 5681,
      "Ġhaben": 5682,
      "haus": 5683,
      "Ã¡lis": 5684,
      "oles": 5685,
      "Ġproto": 5686,
      "Ã©v": 5687,
      "Ġaantal": 5688,
      "Ġconcern": 5689,
      "Ġconcl": 5690,
      "istique": 5691,
      "ultur": 5692,
      "ritt": 5693,
      "Ġfonction": 5694,
      "ality": 5695,
      "Ġcapt": 5696,
      "Ġ{": 5697,
      "ĠFrances": 5698,
      "ibliote": 5699,
      "Ġhistoria": 5700,
      "****": 5701,
      "Ġcells": 5702,
      "Ġbran": 5703,
      "ĠMax": 5704,
      "zar": 5705,
      "Ġcommon": 5706,
      "Ġhoog": 5707,
      "ĠreÅ¼": 5708,
      "iero": 5709,
      "Ã¤hrend": 5710,
      "Ġindividual": 5711,
      "Ġ1949": 5712,
      "Ġpoints": 5713,
      "ĠJapan": 5714,
      "âĶĢâĶĢâĶĢâĶĢâĶĢâĶĢâĶĢâĶĢâĶĢâĶĢâĶĢâĶĢâĶĢâĶĢâĶĢâĶĢ": 5715,
      "Ex": 5716,
      "ĠEsta": 5717,
      "Ġcountry": 5718,
      "kiem": 5719,
      "avam": 5720,
      "Ġwyst": 5721,
      "Ġimportantes": 5722,
      "itet": 5723,
      "Ġhard": 5724,
      "istycz": 5725,
      "Ġatrav": 5726,
      "ĠdziaÅĤacz": 5727,
      "Ġzes": 5728,
      "ĠAug": 5729,
      "Ġpossibil": 5730,
      "ĠÃ©d": 5731,
      "Ġmanifest": 5732,
      "uite": 5733,
      "Ġschrijver": 5734,
      "ĠInstit": 5735,
      "Ġcours": 5736,
      "pri": 5737,
      "Ġevalu": 5738,
      "urso": 5739,
      "Ġtiempo": 5740,
      "ÅĤas": 5741,
      "ĠMass": 5742,
      "Ã©rio": 5743,
      "Äħc": 5744,
      "nem": 5745,
      "Ġzas": 5746,
      "Ġimpro": 5747,
      "ĠPaulo": 5748,
      "Ã³t": 5749,
      "kich": 5750,
      "ĠHistory": 5751,
      "uÃŁ": 5752,
      "amos": 5753,
      "Ġ1956": 5754,
      "ĠRob": 5755,
      "Ġtravers": 5756,
      "Ġconsum": 5757,
      "ĠPedro": 5758,
      "Ġmicro": 5759,
      "ĠteÅ¼": 5760,
      "Ġpouvoir": 5761,
      "ÄĻpu": 5762,
      "Ġ1938": 5763,
      "atory": 5764,
      "Ġmeasure": 5765,
      "nea": 5766,
      "vention": 5767,
      "Ġmut": 5768,
      "Ġdoub": 5769,
      "Ġgev": 5770,
      "ĠPlan": 5771,
      "ĠStates": 5772,
      "Ġrac": 5773,
      "ĠInternet": 5774,
      "Ġsept": 5775,
      "ecu": 5776,
      "Ã¼c": 5777,
      "formance": 5778,
      "ĠSchw": 5779,
      "69": 5780,
      "Ġcart": 5781,
      "rou": 5782,
      "ersche": 5783,
      "Ġrappresent": 5784,
      "ĠChristian": 5785,
      "Ġsamen": 5786,
      "Ġechter": 5787,
      "Ġgod": 5788,
      "alista": 5789,
      "Ġrom": 5790,
      "istka": 5791,
      "Ġkunst": 5792,
      "ators": 5793,
      "unci": 5794,
      "ĠKir": 5795,
      "Ġingl": 5796,
      "Ġcalcul": 5797,
      "ativas": 5798,
      "lig": 5799,
      "ox": 5800,
      "vest": 5801,
      "Ġpeint": 5802,
      "Ġmuzy": 5803,
      "Ġeg": 5804,
      "Ġselon": 5805,
      "ĠcientÃŃf": 5806,
      "oke": 5807,
      "Ġox": 5808,
      "Ġwszyst": 5809,
      "onas": 5810,
      "Ġaver": 5811,
      "fois": 5812,
      "ĠBal": 5813,
      "mathb": 5814,
      "hou": 5815,
      "Ġgebruikt": 5816,
      "Ã¢ncia": 5817,
      "ĠAls": 5818,
      "ĠArm": 5819,
      "sterdam": 5820,
      "ffent": 5821,
      "baar": 5822,
      "Ġestad": 5823,
      "ĠDis": 5824,
      "ading": 5825,
      "Ġander": 5826,
      "Ġverschill": 5827,
      "Ġmobil": 5828,
      "Ġble": 5829,
      "Ġestos": 5830,
      "Ġfurono": 5831,
      "ĠStra": 5832,
      "Ġwojsk": 5833,
      "agna": 5834,
      "Ġperd": 5835,
      "ruck": 5836,
      "Ġpag": 5837,
      "ieck": 5838,
      "ĠCamp": 5839,
      "aine": 5840,
      "ĠOc": 5841,
      "Ġtradic": 5842,
      "Ġrip": 5843,
      "Ġtempor": 5844,
      "Ġ1958": 5845,
      "etta": 5846,
      "06": 5847,
      "Ġsuperior": 5848,
      "itas": 5849,
      "Ġdrug": 5850,
      "istan": 5851,
      "halt": 5852,
      "aty": 5853,
      "Ġstell": 5854,
      "Ġbiskup": 5855,
      "ET": 5856,
      "ively": 5857,
      "cons": 5858,
      "ĠSub": 5859,
      "ĠMichel": 5860,
      "Ġprogress": 5861,
      "ourd": 5862,
      "Ġfamily": 5863,
      ".\"": 5864,
      "Ġ1918": 5865,
      "ĠAngel": 5866,
      "Ġrelation": 5867,
      "Ġsort": 5868,
      "icc": 5869,
      "ĠgÅĤÃ³w": 5870,
      "pie": 5871,
      "ourg": 5872,
      "Ġtrener": 5873,
      "Los": 5874,
      "acyj": 5875,
      "Ġaplic": 5876,
      "Ġforte": 5877,
      "dzie": 5878,
      "iker": 5879,
      "oureur": 5880,
      "Ġpropose": 5881,
      "Ġstyle": 5882,
      "Ġdays": 5883,
      "uster": 5884,
      "ĠLuc": 5885,
      "Ġrema": 5886,
      "Ġformation": 5887,
      "Ġtransport": 5888,
      "ĠChile": 5889,
      "Ã¨mes": 5890,
      "Ġversion": 5891,
      "Ġstrong": 5892,
      "jed": 5893,
      "Ġsla": 5894,
      "Ġsotto": 5895,
      "Ġweit": 5896,
      "Ġ1959": 5897,
      "self": 5898,
      "aker": 5899,
      "Ġdroit": 5900,
      "ĠCO": 5901,
      "Ġchamp": 5902,
      "Ġcanad": 5903,
      "Ġsar": 5904,
      "Ġlight": 5905,
      "cil": 5906,
      "hom": 5907,
      "ĠHor": 5908,
      "aniu": 5909,
      "Ġquesta": 5910,
      "istics": 5911,
      "09": 5912,
      "Ġhon": 5913,
      "isches": 5914,
      "03": 5915,
      "Ġviel": 5916,
      "ĠCult": 5917,
      "Ġstos": 5918,
      "Ġconce": 5919,
      "Ġyear": 5920,
      "ĠEar": 5921,
      "Ġnazw": 5922,
      "kken": 5923,
      "Ġnationale": 5924,
      "ĠMarc": 5925,
      "Ã¤ter": 5926,
      "Ġtrabajo": 5927,
      "hu": 5928,
      "ĠBij": 5929,
      "ĠdÃ©veloppement": 5930,
      "ĠElle": 5931,
      "anÃ§a": 5932,
      "Ġsoit": 5933,
      "02": 5934,
      "Ġterug": 5935,
      "Ġbur": 5936,
      "63": 5937,
      "Pa": 5938,
      "Ġmess": 5939,
      "Ġoccident": 5940,
      "Ġmiss": 5941,
      "Ġassim": 5942,
      "Ġ),": 5943,
      "ided": 5944,
      "lle": 5945,
      "ĠApril": 5946,
      "Ãªtre": 5947,
      "ĠFriedrich": 5948,
      "Ġbron": 5949,
      "ĠfÃ¼hr": 5950,
      "Ġerano": 5951,
      "ĠGeschichte": 5952,
      "Ġanaliz": 5953,
      "Ġgalax": 5954,
      "58": 5955,
      "iÃ²": 5956,
      "ĠMonte": 5957,
      "ocke": 5958,
      "Ġsocied": 5959,
      "Ġdevelopment": 5960,
      "Ġestas": 5961,
      "comm": 5962,
      "Ġ()": 5963,
      "Ġsuoi": 5964,
      "Ġinternacional": 5965,
      "Ġbekend": 5966,
      "%).": 5967,
      "ierra": 5968,
      "igne": 5969,
      "Ġtek": 5970,
      "ĠSpe": 5971,
      "izio": 5972,
      "Ġsociale": 5973,
      "ommen": 5974,
      "ĠAnn": 5975,
      "ming": 5976,
      "Ġpast": 5977,
      "ĠBon": 5978,
      "ulg": 5979,
      "Ġhid": 5980,
      "ĠAlbert": 5981,
      "Ġseguito": 5982,
      "Ġlatach": 5983,
      "dot": 5984,
      "Ġcommunic": 5985,
      "eri": 5986,
      "Ġpisarz": 5987,
      "Ġassum": 5988,
      "ĠOx": 5989,
      "Ġfueron": 5990,
      "nikÃ³w": 5991,
      "Ġotras": 5992,
      "ĠMundial": 5993,
      "utsche": 5994,
      "Ġerst": 5995,
      "Ġpatients": 5996,
      "Ġbin": 5997,
      "âĢ¦": 5998,
      "Ġfamil": 5999,
      "perties": 6000,
      "Ġexc": 6001,
      "rado": 6002,
      "ĠgrÃ¶ÃŁ": 6003,
      "imas": 6004,
      "unter": 6005,
      "Ġgibt": 6006,
      "enten": 6007,
      "orb": 6008,
      "uvre": 6009,
      "Ġwet": 6010,
      "ĠRP": 6011,
      "ĠdÃ©cada": 6012,
      "ifi": 6013,
      "ĠjÃ¡": 6014,
      "eria": 6015,
      "ĠDi": 6016,
      "umas": 6017,
      "Ġmaxim": 6018,
      "Ġaround": 6019,
      "ieme": 6020,
      "04": 6021,
      "ateurs": 6022,
      "59": 6023,
      "}}": 6024,
      "Ġpoz": 6025,
      "Ġmeans": 6026,
      "ogos": 6027,
      "stellung": 6028,
      "ĠWoj": 6029,
      "ikt": 6030,
      "ended": 6031,
      "Ġupd": 6032,
      "Ġutilizz": 6033,
      "Ġalcuni": 6034,
      "izioni": 6035,
      "ĠZuid": 6036,
      "ĠÅģ": 6037,
      "uiten": 6038,
      "stwa": 6039,
      "ĠVerlag": 6040,
      "Ġquello": 6041,
      "54": 6042,
      "ursos": 6043,
      "ĠSon": 6044,
      "ĠOne": 6045,
      "back": 6046,
      "center": 6047,
      "Ġbecame": 6048,
      "Ġdiscipl": 6049,
      "Ġgenera": 6050,
      "adamente": 6051,
      "udni": 6052,
      "recht": 6053,
      "Ã¡lisis": 6054,
      "auer": 6055,
      "Ġestudio": 6056,
      "Ġprzec": 6057,
      "isce": 6058,
      "Ġsite": 6059,
      "ĠdÃ©partement": 6060,
      "Ġrat": 6061,
      "Ġimag": 6062,
      "istica": 6063,
      "licher": 6064,
      "ĠBes": 6065,
      "Ġnote": 6066,
      "ĠsystÃ¨me": 6067,
      "ĠBraz": 6068,
      "lands": 6069,
      "Ġ1954": 6070,
      "Ã©lÃ©": 6071,
      "hin": 6072,
      "ĠItaliaans": 6073,
      "ÅĤyw": 6074,
      "Ġarr": 6075,
      "Ġbritannique": 6076,
      "Ġallow": 6077,
      "ĠMens": 6078,
      "Ġjour": 6079,
      "uale": 6080,
      "iglia": 6081,
      "atiques": 6082,
      "ĠtravÃ©s": 6083,
      "egn": 6084,
      "iendo": 6085,
      "Ġteoria": 6086,
      "Ġencuent": 6087,
      "Ġimpos": 6088,
      "erva": 6089,
      "Ġexiste": 6090,
      "quier": 6091,
      "Ã³ÅĤnoc": 6092,
      "Ġstre": 6093,
      "hist": 6094,
      "Ġalbum": 6095,
      "pers": 6096,
      "Ġfos": 6097,
      "ÅĤod": 6098,
      "arsi": 6099,
      "uff": 6100,
      "rika": 6101,
      "Italia": 6102,
      "Te": 6103,
      "asso": 6104,
      "Ġvolume": 6105,
      "Ġanno": 6106,
      "ieri": 6107,
      "oviet": 6108,
      "iosen": 6109,
      "ĠrÃ©gion": 6110,
      "lijke": 6111,
      "Is": 6112,
      "Ġbev": 6113,
      "Ġstanow": 6114,
      "Ġlocaliz": 6115,
      "Ab": 6116,
      "tra": 6117,
      "zz": 6118,
      "Ġcontribu": 6119,
      "rÃ¨s": 6120,
      "Ġ1937": 6121,
      "Ġlow": 6122,
      "Ġautoc": 6123,
      "iled": 6124,
      "62": 6125,
      "Ġpunt": 6126,
      "cas": 6127,
      "Ġvec": 6128,
      "Ġferro": 6129,
      "ĠtrÃªs": 6130,
      "ieb": 6131,
      "hÃµes": 6132,
      "emÃ¡s": 6133,
      "Ġchange": 6134,
      "Ġsle": 6135,
      "ĠGab": 6136,
      "ĠAufl": 6137,
      "Ġsoftware": 6138,
      "publique": 6139,
      "ĠNat": 6140,
      "ĠdÃ©f": 6141,
      "halb": 6142,
      "Ġapp": 6143,
      "ĠCarl": 6144,
      "olds": 6145,
      "Ġpermit": 6146,
      "fre": 6147,
      "Ġfilosof": 6148,
      "ismos": 6149,
      "ĠreÅ¼yser": 6150,
      "kÄħ": 6151,
      "Ġshown": 6152,
      "ĠCatal": 6153,
      "aglia": 6154,
      "Ġcantante": 6155,
      "Ġkompozy": 6156,
      "Ġsociales": 6157,
      "ĠEsc": 6158,
      "Ã«l": 6159,
      "gos": 6160,
      "Ġhead": 6161,
      "ĠGiovanni": 6162,
      "61": 6163,
      "onnement": 6164,
      "ĠNovember": 6165,
      "mee": 6166,
      "AM": 6167,
      "Ġhath": 6168,
      "Ġ1955": 6169,
      "Ġhy": 6170,
      "wij": 6171,
      "ĠcrÃŃt": 6172,
      "Ã³Åº": 6173,
      "ĠAnna": 6174,
      "Ġgouvernement": 6175,
      "Ġlleg": 6176,
      "Ġmassa": 6177,
      "Ġ1957": 6178,
      "forme": 6179,
      "Ġlic": 6180,
      "Unis": 6181,
      "Ġsuff": 6182,
      "otte": 6183,
      "Ġconsist": 6184,
      "Ġsuperfic": 6185,
      "nier": 6186,
      "Ġless": 6187,
      "itive": 6188,
      "ĠTre": 6189,
      "ĠProgram": 6190,
      "nicz": 6191,
      "Ġequival": 6192,
      "ĠColomb": 6193,
      "07": 6194,
      "Ġterms": 6195,
      "Ġtypes": 6196,
      "Ġtook": 6197,
      "ĠMol": 6198,
      "RO": 6199,
      "Ġverl": 6200,
      "ipe": 6201,
      "ĠStat": 6202,
      "Ġfacil": 6203,
      "epen": 6204,
      "Ã¤ng": 6205,
      "Ġznaj": 6206,
      "zÄħt": 6207,
      "ibli": 6208,
      "Ġnaam": 6209,
      "Ġmodelo": 6210,
      "EC": 6211,
      "ĠScience": 6212,
      "Ã©tico": 6213,
      "Ġlittle": 6214,
      "rage": 6215,
      "Ġlav": 6216,
      "yz": 6217,
      "Ġdalle": 6218,
      "Ġbio": 6219,
      "Ã©rique": 6220,
      "udes": 6221,
      "ĠOst": 6222,
      "hrm": 6223,
      "phe": 6224,
      "ĠJacques": 6225,
      "unta": 6226,
      "Ġ1929": 6227,
      "ohl": 6228,
      "amt": 6229,
      "Ġdisco": 6230,
      "waÅĤ": 6231,
      "kiej": 6232,
      "gerufen": 6233,
      "Ġpierwszy": 6234,
      "Ġcet": 6235,
      "ands": 6236,
      "equ": 6237,
      "rano": 6238,
      "Ġterra": 6239,
      "Ġgrupos": 6240,
      "Par": 6241,
      "!âĢĿ": 6242,
      "anych": 6243,
      "ĠHis": 6244,
      "ĠComp": 6245,
      "ĠtÃ©c": 6246,
      "aval": 6247,
      "Ġrole": 6248,
      "edeut": 6249,
      "Ġrecord": 6250,
      "Ġseem": 6251,
      "lad": 6252,
      "ĠSem": 6253,
      "Ġpolitical": 6254,
      "cito": 6255,
      "Ġbeste": 6256,
      "57": 6257,
      "skÄħ": 6258,
      "ĠRev": 6259,
      "Ġconfl": 6260,
      "rache": 6261,
      "Ġphilosoph": 6262,
      "ĠgÃ©": 6263,
      "Ã³dz": 6264,
      "oemd": 6265,
      "ieder": 6266,
      "Ġdiverse": 6267,
      "Ġanterior": 6268,
      "Ġbinnen": 6269,
      "ĠSeptember": 6270,
      "Ġposterior": 6271,
      "Ġnob": 6272,
      "irit": 6273,
      "Ġ1952": 6274,
      "pes": 6275,
      "Ġextens": 6276,
      "ĠImper": 6277,
      "ĠCD": 6278,
      "udio": 6279,
      "Ġgrad": 6280,
      "51": 6281,
      "Ġesper": 6282,
      "Ġsouvent": 6283,
      "ellig": 6284,
      "ĠHein": 6285,
      "origine": 6286,
      "ktion": 6287,
      "rivain": 6288,
      "icki": 6289,
      "ĠFort": 6290,
      "issen": 6291,
      "Ġthought": 6292,
      "Ġ1932": 6293,
      "Ġ1953": 6294,
      "Ġobras": 6295,
      "ĠTro": 6296,
      "Ġvorm": 6297,
      "Ġplac": 6298,
      "ibe": 6299,
      "dire": 6300,
      "Ġrelacion": 6301,
      "eler": 6302,
      "kele": 6303,
      "inho": 6304,
      "ĠMaur": 6305,
      "oe": 6306,
      "ĠVI": 6307,
      "Ġobjetivo": 6308,
      "pad": 6309,
      "mathrm": 6310,
      "Ġsistemas": 6311,
      "ĠNow": 6312,
      "ĠVir": 6313,
      "Ġlibert": 6314,
      "Ġtax": 6315,
      "helm": 6316,
      "ĠMark": 6317,
      "ĠGeneral": 6318,
      "Ġcalend": 6319,
      "Ġbad": 6320,
      "Ġ1934": 6321,
      "jan": 6322,
      "ĠWhen": 6323,
      "ionali": 6324,
      "Ste": 6325,
      "Ġverm": 6326,
      "Ġdistribution": 6327,
      "ĠEnglish": 6328,
      "52": 6329,
      "ĠKre": 6330,
      "ĠRam": 6331,
      "AL": 6332,
      "anne": 6333,
      "Ġside": 6334,
      "ĠÃĸ": 6335,
      "lieÃŁ": 6336,
      "Ġdiplom": 6337,
      "Ġjaren": 6338,
      "align": 6339,
      "zcz": 6340,
      "Ġsubs": 6341,
      "Ã±os": 6342,
      "Ġsav": 6343,
      "Ġindu": 6344,
      "ribe": 6345,
      "ografia": 6346,
      "Ġpessoas": 6347,
      "Ġcentury": 6348,
      "ĠVenez": 6349,
      "ĠFel": 6350,
      "elling": 6351,
      "ĠServ": 6352,
      "SS": 6353,
      "Ġaument": 6354,
      "open": 6355,
      "Ġprobabil": 6356,
      "Ġabril": 6357,
      "uay": 6358,
      "|-": 6359,
      "ĠsÃŃ": 6360,
      "Ġstata": 6361,
      "Ġnive": 6362,
      "ĠFar": 6363,
      "rown": 6364,
      "Ġaveva": 6365,
      "PD": 6366,
      "amentos": 6367,
      "Ġtutti": 6368,
      "Ġinit": 6369,
      "utos": 6370,
      "Ġdrie": 6371,
      "ĠVerenig": 6372,
      "ĠgÃ©nÃ©ral": 6373,
      "Er": 6374,
      "Ġstabil": 6375,
      "Ġconjunto": 6376,
      "08": 6377,
      "Ġpiosen": 6378,
      "ĠEine": 6379,
      "Ġmediante": 6380,
      "Ã©b": 6381,
      "Ġfaire": 6382,
      "omorph": 6383,
      "ĠLuis": 6384,
      "ĠbritÃ¡nico": 6385,
      "Ġmusical": 6386,
      "ĠOri": 6387,
      "ĠCet": 6388,
      "anÃ§": 6389,
      "Ġlabor": 6390,
      "ĠHaupt": 6391,
      "arda": 6392,
      "Ġhoofd": 6393,
      "ching": 6394,
      "UR": 6395,
      "ĠStati": 6396,
      "util": 6397,
      "ĠKat": 6398,
      "Ġhip": 6399,
      "Ġthink": 6400,
      "ption": 6401,
      "ĠMur": 6402,
      "ĠdespuÃ©s": 6403,
      "aps": 6404,
      "Ġ1951": 6405,
      "inst": 6406,
      "Ġrot": 6407,
      "vision": 6408,
      "sing": 6409,
      "kach": 6410,
      "ĠEngels": 6411,
      "ĠSw": 6412,
      "Ġglobal": 6413,
      "Ġesempio": 6414,
      "Ġeffic": 6415,
      "yc": 6416,
      "zas": 6417,
      "Ġejemplo": 6418,
      "micas": 6419,
      "Ġ1928": 6420,
      "Ã¨g": 6421,
      "Das": 6422,
      "ĠhÃ¡": 6423,
      "Ġquindi": 6424,
      "iast": 6425,
      "Ġagricult": 6426,
      "Ġihre": 6427,
      "orea": 6428,
      "Ġdestac": 6429,
      "alem": 6430,
      "Ġvul": 6431,
      "ĠRem": 6432,
      "wend": 6433,
      "Ġ32": 6434,
      "ĠProdu": 6435,
      "ĠWeb": 6436,
      "ijski": 6437,
      "Ġsqu": 6438,
      "Ð½": 6439,
      "ĠBru": 6440,
      "ĠeconÃ³": 6441,
      "iÅĦski": 6442,
      "ources": 6443,
      "fera": 6444,
      "Ġframe": 6445,
      "Ġ_": 6446,
      "maÅĤy": 6447,
      "Ġvoc": 6448,
      "ĠCer": 6449,
      "yo": 6450,
      "Ġelementos": 6451,
      "ĠYou": 6452,
      "chniques": 6453,
      "Ġmolec": 6454,
      "iÃŁ": 6455,
      "ĠRed": 6456,
      "Ġarea": 6457,
      "yal": 6458,
      "ĠFranÃ§ois": 6459,
      "Ã¶glich": 6460,
      "Ġdispon": 6461,
      "Ġvita": 6462,
      "Ã©mat": 6463,
      "Ġcelle": 6464,
      "ĠspoÅĤ": 6465,
      "ĠChe": 6466,
      "ĠJacob": 6467,
      "Ġrob": 6468,
      "zki": 6469,
      "iciones": 6470,
      "Ġproblems": 6471,
      "Ġdesarrollo": 6472,
      "Ġatleet": 6473,
      "Ġ1919": 6474,
      "Ġlaw": 6475,
      "ĠdÃ©fin": 6476,
      "rait": 6477,
      "Ġtijdens": 6478,
      "imens": 6479,
      "OL": 6480,
      "ijf": 6481,
      "ĠsiÃ¨cle": 6482,
      "Ġportugues": 6483,
      "jas": 6484,
      "arias": 6485,
      "orem": 6486,
      "ĠOok": 6487,
      "Ad": 6488,
      "Ġverso": 6489,
      "Ġvoetbal": 6490,
      "Ġwhe": 6491,
      "ĠUne": 6492,
      "Ġ1925": 6493,
      "bil": 6494,
      "Ġdramat": 6495,
      "oltre": 6496,
      "Ġsovi": 6497,
      "iales": 6498,
      "emos": 6499,
      "ĠÃľber": 6500,
      "Ġwielren": 6501,
      "kaz": 6502,
      "Ġanswer": 6503,
      "bild": 6504,
      "ĠwiÄĻks": 6505,
      "ypoth": 6506,
      "wood": 6507,
      "Ġlangue": 6508,
      "Ã®t": 6509,
      "god": 6510,
      "Ġdet": 6511,
      "Ġbene": 6512,
      "iteur": 6513,
      "Ġidentific": 6514,
      "icher": 6515,
      "Ġmaggior": 6516,
      "ĠPC": 6517,
      "Ġsignificant": 6518,
      "ruk": 6519,
      "ĠNorte": 6520,
      "Ġsources": 6521,
      "ĠJournal": 6522,
      "gem": 6523,
      "histoire": 6524,
      "nt": 6525,
      "ĠPour": 6526,
      "ĠPark": 6527,
      "Ġsegunda": 6528,
      "ĠwÅĤad": 6529,
      "grama": 6530,
      "100": 6531,
      "ongo": 6532,
      "issement": 6533,
      "een": 6534,
      "Ac": 6535,
      "Å¡": 6536,
      "ĠPas": 6537,
      "sky": 6538,
      "Ġokres": 6539,
      "ĠFa": 6540,
      "ĠapÃ³s": 6541,
      "igr": 6542,
      "Ġquer": 6543,
      "Ġprepar": 6544,
      "Ġstudies": 6545,
      "Ġzij": 6546,
      "icznych": 6547,
      ".</": 6548,
      "Ġ1927": 6549,
      "Ġvista": 6550,
      "gether": 6551,
      "nico": 6552,
      "Ġprog": 6553,
      "Ġ1914": 6554,
      "Ġestable": 6555,
      "jew": 6556,
      "iograph": 6557,
      "onio": 6558,
      "Ġcasa": 6559,
      "ĠAct": 6560,
      "Ġproperties": 6561,
      "pat": 6562,
      "entr": 6563,
      "Ġgroupe": 6564,
      "Ġdonc": 6565,
      "ionales": 6566,
      "Ġorden": 6567,
      "ĠDr": 6568,
      "Ġtogether": 6569,
      "ips": 6570,
      "MC": 6571,
      "urb": 6572,
      "ĠManuel": 6573,
      "Ġdez": 6574,
      "Ġexemplo": 6575,
      "ĠEdward": 6576,
      "stwo": 6577,
      "Univers": 6578,
      "ĠPers": 6579,
      "ĠĠĠĠĠĠĠ": 6580,
      "Ġalgebra": 6581,
      "urr": 6582,
      "most": 6583,
      "wet": 6584,
      "Ġargentino": 6585,
      "azionale": 6586,
      "ĠIndia": 6587,
      "AD": 6588,
      "Ġperform": 6589,
      "Ġtimes": 6590,
      "Ġinfer": 6591,
      "owaÄĩ": 6592,
      "ĠsÃ©rie": 6593,
      "reto": 6594,
      "Ġcause": 6595,
      "Ġkre": 6596,
      "ĠNiem": 6597,
      "Ġpath": 6598,
      "Ġtous": 6599,
      "arious": 6600,
      "Ġ1935": 6601,
      "Ġroi": 6602,
      "Ġrock": 6603,
      "fab": 6604,
      "iÃµes": 6605,
      "ĠmunicÃŃpio": 6606,
      "ĠArgentina": 6607,
      "querda": 6608,
      "Ġcann": 6609,
      "Ġpreced": 6610,
      "ĠMiss": 6611,
      "heden": 6612,
      "Ġoud": 6613,
      "Cl": 6614,
      "Ġvot": 6615,
      "Ġtys": 6616,
      "Ġdeclar": 6617,
      "ĠbyÅĤa": 6618,
      "Ã¶nig": 6619,
      "asta": 6620,
      "ÃŃgen": 6621,
      "Ġaustral": 6622,
      "Ġkompozytor": 6623,
      "Ġworks": 6624,
      "loss": 6625,
      "Ġfather": 6626,
      "Ġteach": 6627,
      "ĠWhat": 6628,
      "Ġ1926": 6629,
      "utto": 6630,
      "Ġduas": 6631,
      "ĠNapole": 6632,
      "Ġprincipales": 6633,
      "Å¼a": 6634,
      "Ġdistin": 6635,
      "Ġbrasileiro": 6636,
      "}\\": 6637,
      "ikan": 6638,
      "Ġ1924": 6639,
      "ellschaft": 6640,
      "Ġsab": 6641,
      "esten": 6642,
      "Ġquali": 6643,
      "ĠosÃ³b": 6644,
      "ĠOper": 6645,
      "ception": 6646,
      "Ġweer": 6647,
      "Ġregia": 6648,
      "Ġcresc": 6649,
      "Ġgraf": 6650,
      "Ġclos": 6651,
      "Ġincre": 6652,
      "Ã¼l": 6653,
      "Ġadv": 6654,
      "embro": 6655,
      "Ġdow": 6656,
      "Ġobtained": 6657,
      "iczne": 6658,
      "erie": 6659,
      "ĠReino": 6660,
      "Ġeas": 6661,
      "abile": 6662,
      "Ġfew": 6663,
      "ĠMuseum": 6664,
      "ĠcosÃ¬": 6665,
      "Ġnarrat": 6666,
      "ĠbyÄĩ": 6667,
      "Ġaustria": 6668,
      "Ġenf": 6669,
      "ĠJust": 6670,
      "Ġsource": 6671,
      "Ġgeomet": 6672,
      "Ġmedio": 6673,
      "Ġkonn": 6674,
      "Ġaltre": 6675,
      "ĠatravÃ©s": 6676,
      "ĠAmsterdam": 6677,
      "ĠrÃ©c": 6678,
      "Ġtej": 6679,
      "ymi": 6680,
      "Ġrelated": 6681,
      "ĠGrand": 6682,
      "jar": 6683,
      "ĠRol": 6684,
      "oÅĦ": 6685,
      "ĠquÃŃ": 6686,
      "Ġ1931": 6687,
      "bers": 6688,
      "ppe": 6689,
      "Ġdifficult": 6690,
      "ĠFol": 6691,
      "orten": 6692,
      "Ġ1922": 6693,
      "Ġcub": 6694,
      "ĠAv": 6695,
      "Ġtemperatura": 6696,
      "Be": 6697,
      "kn": 6698,
      "Ġ1900": 6699,
      "Ġmm": 6700,
      "alle": 6701,
      "Ġrisp": 6702,
      "ĠCentral": 6703,
      "At": 6704,
      "Ġyoung": 6705,
      "Ġvalid": 6706,
      "well": 6707,
      "Ġgol": 6708,
      "Ġmiesz": 6709,
      "imin": 6710,
      "Ġsimpl": 6711,
      "Ġcomputer": 6712,
      "ĠlÃŃn": 6713,
      "Ã©rature": 6714,
      "Ġreturn": 6715,
      "Ġalgunos": 6716,
      "ĠMenschen": 6717,
      "hne": 6718,
      "Ge": 6719,
      "hib": 6720,
      "Ġdone": 6721,
      "Ġbew": 6722,
      "ĠSl": 6723,
      "Ġphot": 6724,
      "ĠMilano": 6725,
      "orzy": 6726,
      "Ġitalien": 6727,
      "Ġatmos": 6728,
      "imentos": 6729,
      "egd": 6730,
      "Ġpubli": 6731,
      "Ġersten": 6732,
      "Wh": 6733,
      "Ġfeder": 6734,
      "ivel": 6735,
      "Ġtransm": 6736,
      "Ġcare": 6737,
      "quel": 6738,
      "Ġalta": 6739,
      "ographie": 6740,
      "ridge": 6741,
      "Ġstron": 6742,
      "Ġ(\"": 6743,
      "Ġsea": 6744,
      "Ġpapel": 6745,
      "pow": 6746,
      "Ġcad": 6747,
      "Ġcru": 6748,
      "ferences": 6749,
      "Ġpopula": 6750,
      "Ġelev": 6751,
      "ĠspÃ©ci": 6752,
      "Ġdirec": 6753,
      "Ġillustr": 6754,
      "Ġverschillende": 6755,
      "fang": 6756,
      "mond": 6757,
      "Ġleven": 6758,
      "ĠMary": 6759,
      "Ġsubject": 6760,
      "wig": 6761,
      "Ġrod": 6762,
      "Ġogni": 6763,
      "Ġakt": 6764,
      "vey": 6765,
      "ĠTamb": 6766,
      "rick": 6767,
      "iness": 6768,
      "ffen": 6769,
      "Ġdestin": 6770,
      "Ġdzien": 6771,
      "',": 6772,
      "Ġalguns": 6773,
      "Ġverg": 6774,
      "Ġbuild": 6775,
      "Ġmilitaire": 6776,
      "Ġmuer": 6777,
      "ĠmÃ©th": 6778,
      "Ġevolution": 6779,
      "ĠSym": 6780,
      "roph": 6781,
      "abei": 6782,
      "Ġmidd": 6783,
      "lior": 6784,
      "Ġ500": 6785,
      "ville": 6786,
      "Ġincluding": 6787,
      "ĠOut": 6788,
      "Ġfunctions": 6789,
      "owca": 6790,
      "oft": 6791,
      "Ġinaug": 6792,
      "ĠAnal": 6793,
      "Ġaunque": 6794,
      "ĠdonnÃ©es": 6795,
      "Ġsue": 6796,
      "Ġshows": 6797,
      "ĠpoblaciÃ³n": 6798,
      "was": 6799,
      "ĠSpr": 6800,
      "ĠCab": 6801,
      "ĠPac": 6802,
      "kehr": 6803,
      "Ġbetter": 6804,
      "Ġnegli": 6805,
      "ÑĢ": 6806,
      "Ġkult": 6807,
      "ĠCour": 6808,
      "Ġpoet": 6809,
      "zien": 6810,
      "Ġresta": 6811,
      "ends": 6812,
      "ergie": 6813,
      "aton": 6814,
      "Ġformas": 6815,
      "Ġarchitect": 6816,
      "rero": 6817,
      "unit": 6818,
      "ativos": 6819,
      "stad": 6820,
      "Ġ1921": 6821,
      "Ġtoda": 6822,
      "rez": 6823,
      "omer": 6824,
      "Ġitaliana": 6825,
      "Ġabsol": 6826,
      "omes": 6827,
      "depend": 6828,
      "ĠespaÃ±ola": 6829,
      "Ġvrij": 6830,
      "Ġformal": 6831,
      "Ġhacia": 6832,
      "ĠalemÃ¡n": 6833,
      "ĠConse": 6834,
      "Ġpermett": 6835,
      "Ġ1923": 6836,
      "hÃ¤lt": 6837,
      "Ġcurrent": 6838,
      "Ã©rit": 6839,
      "Ġhimself": 6840,
      "Ġdefined": 6841,
      "Ġscience": 6842,
      "Ġdepois": 6843,
      "ĠFebru": 6844,
      "Ġpoco": 6845,
      "Ġverschieden": 6846,
      "cor": 6847,
      "Ġmondo": 6848,
      "bia": 6849,
      "Ġzal": 6850,
      "Ġsuite": 6851,
      "Ġneces": 6852,
      "Ġnac": 6853,
      "ratt": 6854,
      "ights": 6855,
      "arqu": 6856,
      "Ġgenerale": 6857,
      "ĠAleks": 6858,
      "Ġtoo": 6859,
      "arts": 6860,
      "ielt": 6861,
      "Ġenergy": 6862,
      "avel": 6863,
      "Ġperformance": 6864,
      "iane": 6865,
      "ĠAlfred": 6866,
      "hold": 6867,
      "iku": 6868,
      "stoff": 6869,
      "Ġminister": 6870,
      "ĠPolski": 6871,
      "alo": 6872,
      "Ġcomment": 6873,
      "ugen": 6874,
      "lu": 6875,
      "Ġcelui": 6876,
      "ceedings": 6877,
      "ĠÅ»": 6878,
      "woord": 6879,
      "ĠWy": 6880,
      "Ġconflic": 6881,
      "Ġense": 6882,
      "analyse": 6883,
      "okrat": 6884,
      "EL": 6885,
      "Ġair": 6886,
      "Ġchia": 6887,
      "ĠMais": 6888,
      "cono": 6889,
      "Ġinfin": 6890,
      "Ġtrabalho": 6891,
      "raciÃ³n": 6892,
      "Ġvale": 6893,
      "owano": 6894,
      "Ġeram": 6895,
      "isi": 6896,
      "Ġsant": 6897,
      "aster": 6898,
      "aines": 6899,
      "ĠConf": 6900,
      "ĠDiese": 6901,
      "Car": 6902,
      "Ġleast": 6903,
      "di": 6904,
      "tobre": 6905,
      "ĠMinister": 6906,
      "ĠAz": 6907,
      "Ġaccess": 6908,
      "Ġautonom": 6909,
      "ĠDNA": 6910,
      "ĠKal": 6911,
      "rÃŃa": 6912,
      "ĠtÃ©r": 6913,
      "ientras": 6914,
      "Ph": 6915,
      "aves": 6916,
      "ĠamÃ©ricaine": 6917,
      "Ġmensen": 6918,
      "ĠUna": 6919,
      "ĠentÃ£o": 6920,
      "uas": 6921,
      "Ġlit": 6922,
      "Ġsoll": 6923,
      "ouden": 6924,
      "Ġautocoureur": 6925,
      "ĠÃ¶": 6926,
      "ĠanÃ¡lisis": 6927,
      "Ġexemple": 6928,
      "Ġsoul": 6929,
      "Ã³Åºniej": 6930,
      "Ġnever": 6931,
      "Ġattravers": 6932,
      "bach": 6933,
      "ĠBog": 6934,
      "izo": 6935,
      "iÄħÅ¼": 6936,
      "Ġlado": 6937,
      "bare": 6938,
      "Ġencont": 6939,
      "PAS": 6940,
      "emen": 6941,
      "Ġpeintre": 6942,
      "Ġaproxim": 6943,
      "Ġancora": 6944,
      "Ġvalues": 6945,
      "ashington": 6946,
      "Ġpac": 6947,
      "bere": 6948,
      "eff": 6949,
      "Ġfigure": 6950,
      "ĠAlexander": 6951,
      "rian": 6952,
      "essen": 6953,
      "ennis": 6954,
      "entemente": 6955,
      "Ġpubblic": 6956,
      "onk": 6957,
      "Ġcultur": 6958,
      "nict": 6959,
      "aiss": 6960,
      "Ġ(*": 6961,
      "Ġbelangrij": 6962,
      "ĠSejm": 6963,
      "Ġallemand": 6964,
      "Ġvide": 6965,
      "ĠspÃ¤ter": 6966,
      "Ġsurface": 6967,
      "âĢľ.": 6968,
      "ront": 6969,
      "ĠTod": 6970,
      "ĠÅĽwiat": 6971,
      "bind": 6972,
      "Ġwod": 6973,
      "ĠMy": 6974,
      "Ġinternationale": 6975,
      "Ġcall": 6976,
      "ĠBan": 6977,
      "Ġconna": 6978,
      "lang": 6979,
      "ĠLog": 6980,
      "neo": 6981,
      "Ġupdate": 6982,
      "Ã©ta": 6983,
      "ĠmÃºsica": 6984,
      "zpa": 6985,
      "Ġaang": 6986,
      "Ġdisposit": 6987,
      "Ġcases": 6988,
      "Ġchante": 6989,
      "Ġaj": 6990,
      "ops": 6991,
      "Ġpesquis": 6992,
      "Î±": 6993,
      "kim": 6994,
      "Ġsit": 6995,
      "atuur": 6996,
      "For": 6997,
      "Ġprevious": 6998,
      "Ġtard": 6999,
      "aling": 7000,
      "Ġmiasta": 7001,
      "tax": 7002,
      "unes": 7003,
      "Ġemplo": 7004,
      "Ġlengua": 7005,
      "ĠNorth": 7006,
      "Ġsix": 7007,
      "ĠHu": 7008,
      "Ġproof": 7009,
      "Ġond": 7010,
      "Ġtherefore": 7011,
      "bern": 7012,
      "Ġseconda": 7013,
      "ĠAustral": 7014,
      "Ġchil": 7015,
      "ĠbyÅĤo": 7016,
      "Ġpopol": 7017,
      "ĠJesus": 7018,
      "hora": 7019,
      "Ġcontain": 7020,
      "Ġdifferen": 7021,
      "ĠEins": 7022,
      "pha": 7023,
      "ĠTerra": 7024,
      "Ġtable": 7025,
      "aute": 7026,
      "Ġri": 7027,
      "ĠPs": 7028,
      "acjÄĻ": 7029,
      "Ġchef": 7030,
      "ĠrÃ´le": 7031,
      "ĠBerg": 7032,
      "Ġtens": 7033,
      "IV": 7034,
      "Ġquasi": 7035,
      "ĠLord": 7036,
      "Ġtechniques": 7037,
      "Ġinterv": 7038,
      "Ġdeath": 7039,
      "cycl": 7040,
      "atste": 7041,
      "ĠDre": 7042,
      "ĠhabÃŃa": 7043,
      "ĠInternacional": 7044,
      "Ġmetod": 7045,
      "Ġexpression": 7046,
      "prim": 7047,
      "ibr": 7048,
      "zeichnet": 7049,
      "kan": 7050,
      "ĠBos": 7051,
      "Ġmise": 7052,
      "ĠSar": 7053,
      "ĠTour": 7054,
      "encias": 7055,
      "ĠPresident": 7056,
      "ĠBild": 7057,
      "Ġlut": 7058,
      "Ġek": 7059,
      "Ġoct": 7060,
      "usto": 7061,
      "uita": 7062,
      "ĠREDACTED": 7063,
      "Ġpropor": 7064,
      "ktur": 7065,
      "esar": 7066,
      "Ġever": 7067,
      "racht": 7068,
      "Ġthus": 7069,
      "Ġsuiv": 7070,
      "Ġrelev": 7071,
      "Ã¼ber": 7072,
      "ĠThus": 7073,
      "ĠVict": 7074,
      "culos": 7075,
      "ĠwÄĻ": 7076,
      "iona": 7077,
      "Ġpros": 7078,
      "ĠKol": 7079,
      "ĠKle": 7080,
      "see": 7081,
      "Ġincreas": 7082,
      "ĠSouth": 7083,
      "ĠArab": 7084,
      "izar": 7085,
      "Ġpersonas": 7086,
      "reguesias": 7087,
      "Ġaccording": 7088,
      "OD": 7089,
      "ordnung": 7090,
      "oger": 7091,
      "yna": 7092,
      "Ġanalyse": 7093,
      "rak": 7094,
      "odu": 7095,
      "ĠâĢ¢": 7096,
      "zech": 7097,
      "ĠBeisp": 7098,
      "Ġfrequ": 7099,
      "Ġsingle": 7100,
      "inf": 7101,
      "hof": 7102,
      "Ġkont": 7103,
      "ennes": 7104,
      "Ġseen": 7105,
      "based": 7106,
      "EM": 7107,
      "ĠmÃ¡": 7108,
      "ĠrÃ©sult": 7109,
      "ĠZo": 7110,
      "ĠNet": 7111,
      "Ġcomponist": 7112,
      "othe": 7113,
      "ziÅĤ": 7114,
      "SAGE": 7115,
      "ĠAleman": 7116,
      "Ġcateg": 7117,
      "ĠNoord": 7118,
      "Ã©pend": 7119,
      "ump": 7120,
      "ĠFo": 7121,
      "gia": 7122,
      "Ġ1917": 7123,
      "Ġress": 7124,
      "Ġassociated": 7125,
      "dis": 7126,
      "geh": 7127,
      "ĠHow": 7128,
      "Ġvent": 7129,
      "fte": 7130,
      "Ġrelationship": 7131,
      "abs": 7132,
      "Ã¶m": 7133,
      "ĠwspÃ³ÅĤ": 7134,
      "ĠGren": 7135,
      "Ġmeio": 7136,
      "ĠOrig": 7137,
      "icaÃ§Ã£o": 7138,
      "Ġmovimento": 7139,
      "ĠÃĦ": 7140,
      "Ġrozw": 7141,
      "ulier": 7142,
      "poque": 7143,
      "Ġdescript": 7144,
      "Ġoltre": 7145,
      "ĠBuch": 7146,
      "ĠEuropean": 7147,
      "folg": 7148,
      "Ġservice": 7149,
      "Ġokre": 7150,
      "Ġpovo": 7151,
      "IB": 7152,
      "aÅĤy": 7153,
      "Ġcard": 7154,
      "ĠMunic": 7155,
      "Ġrules": 7156,
      "ĠÃ¡reas": 7157,
      "Ġkar": 7158,
      "lain": 7159,
      "andro": 7160,
      "ĠSom": 7161,
      "Ġmode": 7162,
      "ums": 7163,
      "ĠEt": 7164,
      "Ġsei": 7165,
      "Ġinformat": 7166,
      "ĠIgreja": 7167,
      "Ã©ro": 7168,
      "auche": 7169,
      "edÅĤug": 7170,
      "Ġkier": 7171,
      "Ġterritorial": 7172,
      "atrice": 7173,
      "ĠHeil": 7174,
      "ĠterritÃ³rio": 7175,
      "rijd": 7176,
      "ocr": 7177,
      "inig": 7178,
      "Ġearly": 7179,
      "Ġhay": 7180,
      "Ġreform": 7181,
      "Ġconstruct": 7182,
      "Ġregular": 7183,
      "Ġwielrenner": 7184,
      "Ġbard": 7185,
      "naire": 7186,
      "ĠBud": 7187,
      "anna": 7188,
      "ĠsÅĤ": 7189,
      "Ġwind": 7190,
      "Ġquart": 7191,
      "Ġmetal": 7192,
      "Ġprezydent": 7193,
      "cdot": 7194,
      "Ġuc": 7195,
      "izzazione": 7196,
      "Ġafin": 7197,
      "Ġplanet": 7198,
      "PASSAGE": 7199,
      "Ġtransl": 7200,
      "Ġnovembre": 7201,
      "ĠNik": 7202,
      "Ġinterest": 7203,
      "eget": 7204,
      "Ġ].": 7205,
      "Ġgrow": 7206,
      "ĠPiet": 7207,
      "Ġcompte": 7208,
      "Ġrond": 7209,
      "Ġalong": 7210,
      "Ġparti": 7211,
      "arca": 7212,
      "Ġdistint": 7213,
      "anas": 7214,
      "iad": 7215,
      "Ġnumeros": 7216,
      "ĠStre": 7217,
      "chine": 7218,
      "Ġsehr": 7219,
      "Ġcoll": 7220,
      "Ġlinear": 7221,
      ".).": 7222,
      "Ġfute": 7223,
      "Ġpolitiques": 7224,
      "Ġtant": 7225,
      "Ġkomt": 7226,
      "ĠKur": 7227,
      "Ġenquanto": 7228,
      "ependant": 7229,
      "Ġincor": 7230,
      "Ġvariables": 7231,
      "onso": 7232,
      "Ġmouv": 7233,
      "ĠdÃ©cl": 7234,
      "kant": 7235,
      "Ġkam": 7236,
      "Ġsection": 7237,
      "though": 7238,
      "Ġprofessionn": 7239,
      "Ġeb": 7240,
      "Ġbajo": 7241,
      "Ġsize": 7242,
      "Ġgroups": 7243,
      "ags": 7244,
      "abeth": 7245,
      "erski": 7246,
      "plos": 7247,
      "ĠFranz": 7248,
      "Las": 7249,
      "edy": 7250,
      "atem": 7251,
      "zoek": 7252,
      "Ġprove": 7253,
      "Ġestabel": 7254,
      "ev": 7255,
      "Ġpolitica": 7256,
      "Ġtyl": 7257,
      "ĠWilhelm": 7258,
      "Ġtoen": 7259,
      "Ġobten": 7260,
      "Ġproven": 7261,
      "ondere": 7262,
      "Ġpont": 7263,
      "Ġgenoemd": 7264,
      "kar": 7265,
      "ianos": 7266,
      "Ġstoria": 7267,
      "PG": 7268,
      "ĠWay": 7269,
      "ĠReal": 7270,
      "Ġdesenvolvimento": 7271,
      "Ġessa": 7272,
      "itter": 7273,
      "Ġconclus": 7274,
      "Ġtransfer": 7275,
      "Ġproduz": 7276,
      "ÙĬ": 7277,
      "thers": 7278,
      "activ": 7279,
      "Ġmaioria": 7280,
      "urre": 7281,
      "undige": 7282,
      "Ġequip": 7283,
      "Ġnombreux": 7284,
      "Ġparticolare": 7285,
      "Ġgeg": 7286,
      "ĠEp": 7287,
      "Ġbody": 7288,
      "tere": 7289,
      "Ġask": 7290,
      "Ġsust": 7291,
      "rieb": 7292,
      "ubre": 7293,
      "Ġconsidered": 7294,
      "ziaÅĤ": 7295,
      "ulos": 7296,
      "anuari": 7297,
      "onnen": 7298,
      "Ġcertains": 7299,
      "Ġwym": 7300,
      "zyw": 7301,
      "aza": 7302,
      "Ġspectr": 7303,
      "ĠmoÅ¼e": 7304,
      "rane": 7305,
      "Ġnatuur": 7306,
      "Ġkolej": 7307,
      "wers": 7308,
      "iograf": 7309,
      "ĠOur": 7310,
      "astr": 7311,
      "Ġperf": 7312,
      "Ġgobierno": 7313,
      "Ġrim": 7314,
      "Ã©rÃ©": 7315,
      "Ġkey": 7316,
      "ĠStop": 7317,
      "Ġalways": 7318,
      "actions": 7319,
      "Ġniemieck": 7320,
      "bero": 7321,
      "Ġlieu": 7322,
      "tos": 7323,
      "ng": 7324,
      "Ġmedic": 7325,
      "Ass": 7326,
      "ĠGew": 7327,
      "Ġsituation": 7328,
      "Ġsost": 7329,
      "mel": 7330,
      "erve": 7331,
      "ĠWolf": 7332,
      "Ġjo": 7333,
      "Äį": 7334,
      "ĠDaar": 7335,
      "ĠGall": 7336,
      "Ġnotion": 7337,
      "igos": 7338,
      "Ġnouvelle": 7339,
      "article": 7340,
      "Ġsor": 7341,
      "ĠHong": 7342,
      "Ġperten": 7343,
      "yaume": 7344,
      "appro": 7345,
      "zef": 7346,
      "Ġcollabor": 7347,
      "ĠKÃ¶nig": 7348,
      "ĠzostaÅĤa": 7349,
      "Ġdesarroll": 7350,
      "ĠAuflage": 7351,
      "bau": 7352,
      "Ġontwik": 7353,
      "Ġbot": 7354,
      "Ġhiszpa": 7355,
      "andra": 7356,
      "âĢľ,": 7357,
      "Ġhalf": 7358,
      "Ġvaak": 7359,
      "ĠFrom": 7360,
      "Ġchez": 7361,
      "ĠproduÃ§Ã£o": 7362,
      "bet": 7363,
      "Ġview": 7364,
      "Ġgene": 7365,
      "Ġalto": 7366,
      "ĠDaniel": 7367,
      "chnik": 7368,
      "ĠStef": 7369,
      "ĠBill": 7370,
      "Ġtaken": 7371,
      "Ġcorpo": 7372,
      "ĠWashington": 7373,
      "iali": 7374,
      "ĠestÃ£o": 7375,
      "ched": 7376,
      "Ġdrei": 7377,
      "Ġinvece": 7378,
      "Ġprincipais": 7379,
      "ML": 7380,
      "ised": 7381,
      "opol": 7382,
      "tro": 7383,
      "aggi": 7384,
      "Ġartific": 7385,
      "Ġsubst": 7386,
      "Ġihrer": 7387,
      "Ġrosyjski": 7388,
      "ĠEdu": 7389,
      "ĠOber": 7390,
      "ls": 7391,
      "Ġcentrale": 7392,
      "ĠWindows": 7393,
      "ĠczÄĻÅĽci": 7394,
      "ĠRu": 7395,
      "Ġpresented": 7396,
      "Ġcine": 7397,
      "vironnement": 7398,
      "Ġvarious": 7399,
      "ĠprÃ¡ct": 7400,
      "Ġnun": 7401,
      "ĠpÃ©riode": 7402,
      "ĠÅĵ": 7403,
      "ĠDam": 7404,
      "Ġsiglo": 7405,
      "grund": 7406,
      "ource": 7407,
      "univers": 7408,
      "ĠMeth": 7409,
      "Ġdigital": 7410,
      "rada": 7411,
      "Ã©rcito": 7412,
      "mino": 7413,
      "Ġvig": 7414,
      "Ġklas": 7415,
      "azzo": 7416,
      "imenti": 7417,
      "ĠStar": 7418,
      "ĠÅĤ": 7419,
      "ĠMain": 7420,
      "Ġverz": 7421,
      "Ġwzgl": 7422,
      "ĠSy": 7423,
      "ĠWik": 7424,
      "Ġmud": 7425,
      "ĠMr": 7426,
      "Ġnp": 7427,
      "ĠMarÃŃa": 7428,
      "ducation": 7429,
      "ĠMathemat": 7430,
      "aking": 7431,
      "Ġcomune": 7432,
      "ĠpolÃŃticas": 7433,
      "ĠÃ©crit": 7434,
      "ĠStanis": 7435,
      "Ġderni": 7436,
      "Ġasp": 7437,
      "add": 7438,
      "Ġbasis": 7439,
      "ĠSome": 7440,
      "ĠSalv": 7441,
      "ST": 7442,
      "ziek": 7443,
      "tavia": 7444,
      "oge": 7445,
      "ĠLie": 7446,
      "gener": 7447,
      "Ġcode": 7448,
      "ĠMittel": 7449,
      "Ġcompositor": 7450,
      "ĠktÃ³ra": 7451,
      "Ġtendo": 7452,
      "ensa": 7453,
      "kende": 7454,
      "Ne": 7455,
      "Ġfootbal": 7456,
      "Ġheart": 7457,
      "à¤": 7458,
      "Ã¼h": 7459,
      "thur": 7460,
      "ĠLandes": 7461,
      "Ġcommand": 7462,
      "Gr": 7463,
      "Ġpron": 7464,
      "osci": 7465,
      "ĠAfter": 7466,
      "Per": 7467,
      "Ġchim": 7468,
      "ĠhistÃ³ria": 7469,
      "feld": 7470,
      "taÅĤ": 7471,
      "umn": 7472,
      "owana": 7473,
      "ĠestÃ¡n": 7474,
      "nelle": 7475,
      "istiques": 7476,
      "Ġregul": 7477,
      "Ġfronte": 7478,
      "Ġsino": 7479,
      "ĠwiÄĻ": 7480,
      "ĠDay": 7481,
      "Ġtoute": 7482,
      "eller": 7483,
      "Ġspos": 7484,
      "Ġastronom": 7485,
      "cios": 7486,
      "Ġstars": 7487,
      "alisation": 7488,
      "ĠVla": 7489,
      "Ġkomen": 7490,
      "inz": 7491,
      "Ġhost": 7492,
      "Ġclasses": 7493,
      "tera": 7494,
      "trz": 7495,
      "Ġtedes": 7496,
      "ugo": 7497,
      "ging": 7498,
      "pia": 7499,
      "Ġouv": 7500,
      "ĠAcadem": 7501,
      "wier": 7502,
      "ĠÂ±": 7503,
      "embl": 7504,
      "Ġraggi": 7505,
      "zej": 7506,
      "Ġniveau": 7507,
      "conf": 7508,
      "Ġingles": 7509,
      "ciu": 7510,
      "Ġ36": 7511,
      "Ġwhose": 7512,
      "ÅĦskiej": 7513,
      "emma": 7514,
      "ĠSav": 7515,
      "assin": 7516,
      "Ġsaying": 7517,
      "Ġaction": 7518,
      "ĠMarie": 7519,
      "eland": 7520,
      "ĠHil": 7521,
      "ĠWat": 7522,
      "Ġteor": 7523,
      "ĠNue": 7524,
      "Ġexpos": 7525,
      "ĠEmp": 7526,
      "Ġdevient": 7527,
      "FA": 7528,
      "Ġcover": 7529,
      "ĠCy": 7530,
      "aties": 7531,
      "Ġconcep": 7532,
      "ĠNag": 7533,
      "plex": 7534,
      "Ġtekst": 7535,
      "bin": 7536,
      "ĠalÃ©m": 7537,
      "igher": 7538,
      "Ġcorpus": 7539,
      "Ġfrequent": 7540,
      "Ñģ": 7541,
      "ĠÃ©crivain": 7542,
      "Ġucz": 7543,
      "Ġvrouw": 7544,
      "Ġhelp": 7545,
      "voorbeeld": 7546,
      "ÑĤ": 7547,
      "ĠOosten": 7548,
      "Ġdamit": 7549,
      "ĠGon": 7550,
      "Ġcondition": 7551,
      "ÅĤoÅ¼": 7552,
      "SP": 7553,
      "oco": 7554,
      "Ġdziennik": 7555,
      "Ġgdy": 7556,
      "Ġterrest": 7557,
      "Ġindividu": 7558,
      "fass": 7559,
      "Ġax": 7560,
      "Ã£os": 7561,
      "raÃ§Ã£o": 7562,
      "Ġinteg": 7563,
      "Ġnouveau": 7564,
      "IL": 7565,
      "uest": 7566,
      "Ã¡c": 7567,
      "Ġheute": 7568,
      "Ġespagn": 7569,
      "Ġresultados": 7570,
      "Ġjunto": 7571,
      "Ġpossono": 7572,
      "Ġobserved": 7573,
      "Ġseja": 7574,
      "ĠWille": 7575,
      "Ġante": 7576,
      "Ġfinanci": 7577,
      "ĠbyÅĤy": 7578,
      "Ġaz": 7579,
      "oney": 7580,
      "Ġtylko": 7581,
      "iony": 7582,
      "asa": 7583,
      "ietnam": 7584,
      "ĠDire": 7585,
      "ĠComo": 7586,
      "bed": 7587,
      "estre": 7588,
      "ably": 7589,
      "des": 7590,
      "Ġdann": 7591,
      "ĠGÃ¶": 7592,
      "Ġsuperficie": 7593,
      "Ã©rieur": 7594,
      "ĠgiÃł": 7595,
      "Ġquar": 7596,
      "ÃŃstico": 7597,
      "Ġproceso": 7598,
      "Ġmethods": 7599,
      "Ġsequence": 7600,
      "ĠspoÅĤecz": 7601,
      "Ġfic": 7602,
      "ĠPen": 7603,
      "ague": 7604,
      "iac": 7605,
      "ĠCity": 7606,
      "Ġgot": 7607,
      "Ġkwam": 7608,
      "Ġhyd": 7609,
      "Ġentra": 7610,
      "Ġwon": 7611,
      "Ġmur": 7612,
      "ragen": 7613,
      "ziej": 7614,
      "ĠÃ©qu": 7615,
      "waj": 7616,
      "Ġprzeciw": 7617,
      "Ġlink": 7618,
      "itie": 7619,
      "ĠBi": 7620,
      "Ġdefine": 7621,
      "ĠEnde": 7622,
      "illeurs": 7623,
      "ĠzurÃ¼ck": 7624,
      "which": 7625,
      "ĠDou": 7626,
      "Ġestrat": 7627,
      "uliÃ¨re": 7628,
      "BC": 7629,
      "Ġexpans": 7630,
      "ĠCosta": 7631,
      "ulta": 7632,
      "ĠCambridge": 7633,
      "Ġlect": 7634,
      "Ġchrist": 7635,
      "Ġkoszykarz": 7636,
      "mittel": 7637,
      "Ġkeine": 7638,
      "Ġeither": 7639,
      "ichting": 7640,
      "otti": 7641,
      "lais": 7642,
      "nent": 7643,
      "zone": 7644,
      "ĠQue": 7645,
      "Ġvezes": 7646,
      "ĠMore": 7647,
      "ĠDez": 7648,
      "ciel": 7649,
      "endet": 7650,
      "Ġregard": 7651,
      "Ġminer": 7652,
      "Ġseinen": 7653,
      "Ġtienen": 7654,
      "ĠChem": 7655,
      "Ġ1910": 7656,
      "ĠPhilosoph": 7657,
      "ĠNav": 7658,
      "Ġese": 7659,
      "ogue": 7660,
      "Ã¨se": 7661,
      "Ġnormal": 7662,
      "Pier": 7663,
      "Ġziem": 7664,
      "Ã³logo": 7665,
      "alde": 7666,
      ")]]": 7667,
      "Ġwal": 7668,
      "Ġscientif": 7669,
      "mc": 7670,
      "atus": 7671,
      "Ġisso": 7672,
      "Ġgleich": 7673,
      "Ġgeneraliz": 7674,
      "Ġliteratura": 7675,
      "inar": 7676,
      "ĠCro": 7677,
      "umen": 7678,
      "Ġpeuvent": 7679,
      "ĠinÃŃcio": 7680,
      "ĠPos": 7681,
      "ĠMik": 7682,
      "Ġbreakout": 7683,
      "Ġfootballeur": 7684,
      "ĠSche": 7685,
      "stÃ¤nd": 7686,
      "Ġ33": 7687,
      "rico": 7688,
      "ĠEngel": 7689,
      "ared": 7690,
      "encial": 7691,
      "onta": 7692,
      "Ġstem": 7693,
      "iving": 7694,
      "ĠJÃ³": 7695,
      "Ġinici": 7696,
      "Ġadopt": 7697,
      "onda": 7698,
      "letka": 7699,
      "adÃ©m": 7700,
      "aben": 7701,
      "Ġmark": 7702,
      "Ġromano": 7703,
      "ĠKunst": 7704,
      "ths": 7705,
      "Ġfinite": 7706,
      "ozof": 7707,
      "ĠpÃºblico": 7708,
      "Ġrapid": 7709,
      "lik": 7710,
      "atif": 7711,
      "ellt": 7712,
      "Ġabgerufen": 7713,
      "Ġlekkoatletka": 7714,
      "ĠSetup": 7715,
      "emat": 7716,
      "ĠThat": 7717,
      "ĠCentro": 7718,
      "ĠXVI": 7719,
      "ĠStand": 7720,
      "rar": 7721,
      "Ġdeve": 7722,
      "ĠDist": 7723,
      "mata": 7724,
      "Ġmatemat": 7725,
      "Ġcm": 7726,
      "Ġdop": 7727,
      "ivitÃł": 7728,
      "ĠJapon": 7729,
      "Ġfuncion": 7730,
      "micos": 7731,
      "ĪĴ": 7732,
      "Ġsiat": 7733,
      "yte": 7734,
      "Ġsinds": 7735,
      "Ġestrut": 7736,
      "mus": 7737,
      "alter": 7738,
      "Ġpropag": 7739,
      "Ġreason": 7740,
      "ĠUniti": 7741,
      "Ġakadem": 7742,
      "Een": 7743,
      "Ġmanera": 7744,
      "ĠGreg": 7745,
      "Ġmeest": 7746,
      "wes": 7747,
      "ificaciÃ³n": 7748,
      "actic": 7749,
      "Ġomdat": 7750,
      "Ġata": 7751,
      "ĠJoÃ£o": 7752,
      "Ġespecialmente": 7753,
      "Ġisol": 7754,
      "Pr": 7755,
      "ĠPerson": 7756,
      "Ġofic": 7757,
      "ĠLis": 7758,
      "Ġchi": 7759,
      "erop": 7760,
      "zeni": 7761,
      "rof": 7762,
      "ritto": 7763,
      "Ã¶lker": 7764,
      "Ġtree": 7765,
      "Ġfase": 7766,
      "ĠbritÃ¢n": 7767,
      "Des": 7768,
      "Ġ1912": 7769,
      "Ġlaatste": 7770,
      "rÃ³Å¼": 7771,
      "eli": 7772,
      "Ġselbst": 7773,
      "akte": 7774,
      "inning": 7775,
      "ĠktÃ³rych": 7776,
      "Ġpendant": 7777,
      ".;": 7778,
      "ĠOther": 7779,
      "2000": 7780,
      "ĠpÃ³Åºniej": 7781,
      "Ġsolution": 7782,
      "ienst": 7783,
      "ĠOpen": 7784,
      "Ġpequ": 7785,
      "Ġbehav": 7786,
      "ĠMÃ¤r": 7787,
      "Ġhome": 7788,
      "ĠUN": 7789,
      "ĠAndrÃ©": 7790,
      "ĠBarb": 7791,
      "ĠMes": 7792,
      "Ġzag": 7793,
      "Ġspraw": 7794,
      "Ġjoueur": 7795,
      "Ã©gr": 7796,
      "esquerda": 7797,
      "Ġsenza": 7798,
      "Ġeyes": 7799,
      "Ġseule": 7800,
      "Ġclose": 7801,
      "ĠDurante": 7802,
      "beg": 7803,
      "Ġproper": 7804,
      "erca": 7805,
      "Ġhit": 7806,
      "ĠHam": 7807,
      "ĠKap": 7808,
      "Ã¤uf": 7809,
      "Ġdivid": 7810,
      "NU": 7811,
      "ĠLi": 7812,
      "Ġzab": 7813,
      "ĠBere": 7814,
      "iffer": 7815,
      "ĠUnion": 7816,
      "ĠTit": 7817,
      "Ġ300": 7818,
      "Ġwebs": 7819,
      "ĠmilhÃµes": 7820,
      "ĠAdam": 7821,
      "ĠCarlo": 7822,
      "ĠdÃŃa": 7823,
      "Ġelet": 7824,
      "cles": 7825,
      "Ġsecret": 7826,
      "yczne": 7827,
      "tico": 7828,
      "ĠComun": 7829,
      "Ġsemant": 7830,
      "Ġsuggest": 7831,
      "ĠNarod": 7832,
      "ĠOm": 7833,
      "Ġmai": 7834,
      "Ġacordo": 7835,
      "Ð¾Ð": 7836,
      "Bestand": 7837,
      "Ġthough": 7838,
      "Ġimpact": 7839,
      "Ġznajdu": 7840,
      "ichten": 7841,
      "Ġcinco": 7842,
      "Ġcatal": 7843,
      "Ġschool": 7844,
      "entiel": 7845,
      "Ġ--": 7846,
      "Ġenvironment": 7847,
      "orz": 7848,
      "Ġmostr": 7849,
      "Ġfiz": 7850,
      "Ġwyk": 7851,
      "Ã¨ve": 7852,
      "Ġpodstaw": 7853,
      "uste": 7854,
      "ĠBritish": 7855,
      "ĠFab": 7856,
      "ÅĽli": 7857,
      "iago": 7858,
      "Ġtrig": 7859,
      "sv": 7860,
      "yf": 7861,
      "ĠÃ³r": 7862,
      "alin": 7863,
      "ĠKenn": 7864,
      "znac": 7865,
      "ĠSeb": 7866,
      "Ġenero": 7867,
      "ĠAlt": 7868,
      "ĠCi": 7869,
      "Ġproy": 7870,
      "Ġwhether": 7871,
      "Ġdimension": 7872,
      "reven": 7873,
      "thing": 7874,
      "Ġcomport": 7875,
      "Ġotro": 7876,
      "ĠSanto": 7877,
      "ĠTol": 7878,
      "ĠDuitse": 7879,
      "Ġlik": 7880,
      "ĠTim": 7881,
      "iono": 7882,
      "ĠAmerica": 7883,
      "Ġparamet": 7884,
      "ĠMess": 7885,
      "arÃ¡": 7886,
      "Ġestruct": 7887,
      "Ġbef": 7888,
      "ĠcaracterÃŃsticas": 7889,
      "ĠKaz": 7890,
      "Ġmoderne": 7891,
      "Ã©rence": 7892,
      "Ġenergia": 7893,
      "Ġtru": 7894,
      "Ġmix": 7895,
      "Ġabord": 7896,
      "Ġwomen": 7897,
      "Ġquesti": 7898,
      "Ġquelques": 7899,
      "si": 7900,
      "Ġpodczas": 7901,
      "rebbe": 7902,
      "Ġcircul": 7903,
      "ĠWalter": 7904,
      "pez": 7905,
      "Ġcasi": 7906,
      "term": 7907,
      "ÃŃda": 7908,
      "ĠVoor": 7909,
      "Ġentrepr": 7910,
      "Ġdep": 7911,
      "MS": 7912,
      "ĠGrup": 7913,
      "Ġprzem": 7914,
      "ĠtÃªm": 7915,
      "Ġcadre": 7916,
      "zwed": 7917,
      "ĠImp": 7918,
      "ĠÃºltimo": 7919,
      "enÃ§a": 7920,
      "Ġcountries": 7921,
      "ĠStaten": 7922,
      "ĠMai": 7923,
      "Ġmoved": 7924,
      "Ġfundamental": 7925,
      "Ġclasse": 7926,
      "ilio": 7927,
      "Ġdict": 7928,
      "Ġuitge": 7929,
      "iencia": 7930,
      "Ġerste": 7931,
      "Ġ`": 7932,
      "izado": 7933,
      "Ġativ": 7934,
      "Ġelements": 7935,
      "ĠÃģfrica": 7936,
      "Ġging": 7937,
      "ĠGol": 7938,
      "ologiques": 7939,
      "Ġwil": 7940,
      "archive": 7941,
      "works": 7942,
      "\")": 7943,
      "bu": 7944,
      "Ã³ri": 7945,
      "Ġagli": 7946,
      "PS": 7947,
      "zahl": 7948,
      "Ġinterior": 7949,
      "ĠtÃ©lÃ©": 7950,
      "Ġopge": 7951,
      "imagem": 7952,
      "engono": 7953,
      "ĠMars": 7954,
      "ĠUnt": 7955,
      "wis": 7956,
      "ĠokrÄĻ": 7957,
      "amma": 7958,
      "ĠRay": 7959,
      "Ġsang": 7960,
      "Ġimplic": 7961,
      "ĠHenri": 7962,
      "pas": 7963,
      "orde": 7964,
      "Ġmann": 7965,
      "Ġzusammen": 7966,
      "Ġrule": 7967,
      "Ġchanges": 7968,
      "emp": 7969,
      "ĠnÃ©cess": 7970,
      "oon": 7971,
      "ĠsegÃºn": 7972,
      "Ġfragment": 7973,
      "Ġearth": 7974,
      "kcji": 7975,
      "ĠStato": 7976,
      "Ġpartij": 7977,
      "Ġexact": 7978,
      "Ġfree": 7979,
      "ĠBart": 7980,
      "Ġconvers": 7981,
      "Ġentanto": 7982,
      "ĠPot": 7983,
      "west": 7984,
      "Ġalter": 7985,
      "schod": 7986,
      "Ġauthor": 7987,
      "Ġfast": 7988,
      "olid": 7989,
      "Ġwaarbij": 7990,
      "reib": 7991,
      "clam": 7992,
      "ÃŃg": 7993,
      "aring": 7994,
      "oche": 7995,
      "koÅĤo": 7996,
      "Ġfilmowy": 7997,
      "Ġcannot": 7998,
      "ĠXVIII": 7999,
      "zÄĻ": 8000,
      "Ġpolic": 8001,
      "Ġavoir": 8002,
      "Ġnovel": 8003,
      "ĠFrankf": 8004,
      "iata": 8005,
      "Ġrele": 8006,
      "Ġtwor": 8007,
      "Ġspect": 8008,
      "idae": 8009,
      "ĠCanada": 8010,
      "ĠOxford": 8011,
      "Ġtheoret": 8012,
      "ĠSmith": 8013,
      "ĠMicros": 8014,
      "ĠJak": 8015,
      "uales": 8016,
      "Ġdatos": 8017,
      "Ġmientras": 8018,
      "geve": 8019,
      "Ġwob": 8020,
      "aks": 8021,
      "mathbf": 8022,
      "otta": 8023,
      "Ġseries": 8024,
      "Ġcontexto": 8025,
      "iev": 8026,
      "ĠUl": 8027,
      "zÄħc": 8028,
      "Ã³lica": 8029,
      "Ġdouble": 8030,
      "Ġfis": 8031,
      "ivil": 8032,
      "Ġalleen": 8033,
      "ĠGermania": 8034,
      "Ġexpres": 8035,
      "Ã³f": 8036,
      "Ġfamili": 8037,
      "Ġenter": 8038,
      "Ġproduce": 8039,
      "ĠSÃ¼d": 8040,
      "ĠArbe": 8041,
      "Ġrandom": 8042,
      "ĠCalifor": 8043,
      "ĠPorto": 8044,
      "olÃ³gico": 8045,
      "syn": 8046,
      "ords": 8047,
      "aken": 8048,
      "Ã¤ÃŁ": 8049,
      "ĠLiber": 8050,
      "ĠvÃ¡rios": 8051,
      "pod": 8052,
      "Ġsed": 8053,
      "ĠDeb": 8054,
      "Ġ1911": 8055,
      "ÅĽnie": 8056,
      "owskiego": 8057,
      "hoch": 8058,
      "Ġappel": 8059,
      "Ġinitial": 8060,
      "Ġdeven": 8061,
      "iaÅĤy": 8062,
      "ugustus": 8063,
      "ĠwÃ¤hrend": 8064,
      "rief": 8065,
      "ospital": 8066,
      "Ġgarant": 8067,
      "Ġprior": 8068,
      "Ġprix": 8069,
      "ĠcaractÃ©r": 8070,
      "falls": 8071,
      "Ø§ÙĦ": 8072,
      "Ġmuse": 8073,
      "ĠMich": 8074,
      "Ġgab": 8075,
      "Ġsondern": 8076,
      "ocra": 8077,
      "Ġcosm": 8078,
      "ĠmoÅ¼na": 8079,
      "Ġoce": 8080,
      "voluc": 8081,
      "ĠConstant": 8082,
      "Ġlivre": 8083,
      "ĠLar": 8084,
      "Ġ1915": 8085,
      "fficient": 8086,
      "Ġov": 8087,
      "Ġfollows": 8088,
      "Ġbereits": 8089,
      "iance": 8090,
      "Ġpersonal": 8091,
      "stre": 8092,
      "ĠDia": 8093,
      "Ã³dzt": 8094,
      "ropolit": 8095,
      "Ġopera": 8096,
      "lege": 8097,
      "ĠLebens": 8098,
      "ummer": 8099,
      "Ġuff": 8100,
      "Ġpattern": 8101,
      "ĠBernard": 8102,
      "aldo": 8103,
      "Ġambient": 8104,
      "ĠKrieg": 8105,
      "ĠpoÅĤudni": 8106,
      "ologies": 8107,
      "Ġinnych": 8108,
      "ĠKais": 8109,
      "Ġinvas": 8110,
      "spre": 8111,
      "File": 8112,
      "hes": 8113,
      "geboren": 8114,
      "300": 8115,
      "Ġlower": 8116,
      "Ġshift": 8117,
      "Ġelabor": 8118,
      "CD": 8119,
      "ixo": 8120,
      "fort": 8121,
      "schrift": 8122,
      "Ġprincipale": 8123,
      "ĠTechn": 8124,
      "cs": 8125,
      "ujÄħc": 8126,
      "ĠFranÃ§a": 8127,
      "oÅĤa": 8128,
      "Ġshalt": 8129,
      "Ã¡ticos": 8130,
      "ĠEgypt": 8131,
      "ax": 8132,
      "Ġaccount": 8133,
      "naio": 8134,
      "Ġbegan": 8135,
      "Ġdescribed": 8136,
      "Ġmundial": 8137,
      "ĠBob": 8138,
      "Ġ37": 8139,
      "ĠRud": 8140,
      "Ġbecome": 8141,
      "Po": 8142,
      "aka": 8143,
      "ÅĤuÅ¼": 8144,
      "ĠGusta": 8145,
      "Dur": 8146,
      "sur": 8147,
      "onal": 8148,
      "ĠJord": 8149,
      "ÃŃveis": 8150,
      "itaires": 8151,
      "ziale": 8152,
      "Ġmathemat": 8153,
      "iada": 8154,
      "Ġvend": 8155,
      "ĠBarcel": 8156,
      "ĠSpec": 8157,
      "ĠGold": 8158,
      "Ġkap": 8159,
      "reng": 8160,
      "ĠrelaÃ§Ã£o": 8161,
      "Ġdiciembre": 8162,
      "ĠFranco": 8163,
      "aceae": 8164,
      "hui": 8165,
      "Ġmarc": 8166,
      "onic": 8167,
      "Ġnation": 8168,
      "Ġvisit": 8169,
      "Ġanti": 8170,
      "ĠnastÄĻp": 8171,
      "Ġsentido": 8172,
      "Ġdiversas": 8173,
      "Ġlargo": 8174,
      "graph": 8175,
      "atom": 8176,
      "Ġquais": 8177,
      "Ġwicht": 8178,
      "Ġseinem": 8179,
      "Ġcommunication": 8180,
      "arbeit": 8181,
      "Ġable": 8182,
      "Ġlate": 8183,
      "Ġluz": 8184,
      "ĠKor": 8185,
      "Ġtam": 8186,
      "Ġfatto": 8187,
      "adig": 8188,
      "Ġ().": 8189,
      "Ġsyste": 8190,
      "ĠDomin": 8191,
      "Ġcommerci": 8192,
      "Ġquatre": 8193,
      "Ġflor": 8194,
      "Ġprzedstaw": 8195,
      "ÅĤoÅĽci": 8196,
      "inary": 8197,
      "Ġchor": 8198,
      "uter": 8199,
      "Ġrepub": 8200,
      "chio": 8201,
      "ring": 8202,
      "ately": 8203,
      "ĠÃ¢": 8204,
      "ustrie": 8205,
      "ĠAlexand": 8206,
      "itte": 8207,
      "Ġruss": 8208,
      "Ġtarde": 8209,
      "Ġbanda": 8210,
      "ugno": 8211,
      "ections": 8212,
      "Ġstructures": 8213,
      "ÃŃdo": 8214,
      "ĠmaniÃ¨re": 8215,
      "cr": 8216,
      "atu": 8217,
      "adaimagem": 8218,
      "porto": 8219,
      "Ġdescribe": 8220,
      "Ġpert": 8221,
      "Arch": 8222,
      "Ġmultip": 8223,
      "iaÃ§Ã£o": 8224,
      "ĠChin": 8225,
      "Ġsaw": 8226,
      "imientos": 8227,
      "Ġrestaur": 8228,
      "iore": 8229,
      "Ġfull": 8230,
      "Ġils": 8231,
      "lan": 8232,
      "Ġgrond": 8233,
      "Ġeffet": 8234,
      "ivement": 8235,
      "riÃ¨re": 8236,
      "Ġinvest": 8237,
      "Ġdus": 8238,
      "Ġmontr": 8239,
      "ĠVerenigde": 8240,
      "Ġtale": 8241,
      "Ġexclus": 8242,
      "niu": 8243,
      "Ġpresenta": 8244,
      "Ġbegin": 8245,
      "ĠPolsce": 8246,
      "ĠRadio": 8247,
      "ĠksiÄĻ": 8248,
      "Ġbrought": 8249,
      "Ġspaz": 8250,
      "ĠBab": 8251,
      "Ġinvent": 8252,
      "voluciÃ³n": 8253,
      "Ġ1905": 8254,
      "Ġdiversos": 8255,
      "ĠUniversidad": 8256,
      "Ġmogelijk": 8257,
      "Ġwenn": 8258,
      "ĠInf": 8259,
      "ĠpÃ³ÅĤnoc": 8260,
      "stein": 8261,
      "Ġ1913": 8262,
      "ijst": 8263,
      "uxemb": 8264,
      "Ġotten": 8265,
      "ĠBu": 8266,
      "Ġinnov": 8267,
      "Ġdestru": 8268,
      "nar": 8269,
      "orzÄħd": 8270,
      "ĠCu": 8271,
      "Ġobt": 8272,
      "Ġstates": 8273,
      "Ġround": 8274,
      "ĠsociÃ©tÃ©": 8275,
      "Å¼ej": 8276,
      "ĠÃ©conomique": 8277,
      "Ġfall": 8278,
      "Ġcentre": 8279,
      "imensional": 8280,
      "meno": 8281,
      "Ġpomoc": 8282,
      "ĠÃ¡gua": 8283,
      "ĠzaÅĤo": 8284,
      "struct": 8285,
      "Ġsearch": 8286,
      "upe": 8287,
      "ĠJaneiro": 8288,
      "IR": 8289,
      "ĠArn": 8290,
      "Ġoctubre": 8291,
      "Ġdeta": 8292,
      "Ġquestions": 8293,
      "acionais": 8294,
      "Ġconven": 8295,
      "ĠDor": 8296,
      "Ġmei": 8297,
      "Ġmaggio": 8298,
      "Ġmuitos": 8299,
      "ĠMond": 8300,
      "szych": 8301,
      "Ġruim": 8302,
      "ĠJohannes": 8303,
      "ially": 8304,
      "ĠcrÃ©ation": 8305,
      "Ġemerg": 8306,
      "Ġdeutschen": 8307,
      "wol": 8308,
      "ĠTs": 8309,
      "ĠSocial": 8310,
      "cyclop": 8311,
      "inet": 8312,
      "Ġvooral": 8313,
      "Ġcentr": 8314,
      "enschap": 8315,
      "Ġach": 8316,
      "Ġdov": 8317,
      "miniaturadaimagem": 8318,
      "ujÄħ": 8319,
      "Ġ34": 8320,
      "Ġteat": 8321,
      "czny": 8322,
      "itative": 8323,
      "Ġmonument": 8324,
      "bior": 8325,
      "Ġub": 8326,
      "Ġcens": 8327,
      "Ġporque": 8328,
      "tembre": 8329,
      "Ġutwor": 8330,
      "isms": 8331,
      "omial": 8332,
      "div": 8333,
      "Ġbzw": 8334,
      "Ġprovinci": 8335,
      "Ġ1916": 8336,
      "ĠeconÃ´": 8337,
      "ziel": 8338,
      "Ġcosta": 8339,
      "Ġlive": 8340,
      "ĠSab": 8341,
      "Ġmodific": 8342,
      "Ġalcune": 8343,
      "pass": 8344,
      "Ġreport": 8345,
      "Ġframework": 8346,
      "field": 8347,
      "ĠPÃ©": 8348,
      "rile": 8349,
      "ĠLor": 8350,
      "ĠwykÅĤad": 8351,
      "Ġjaponais": 8352,
      "Ġincorpor": 8353,
      "Ġprograma": 8354,
      "Ġhaving": 8355,
      "https": 8356,
      "rogen": 8357,
      "ÃŃlia": 8358,
      "Ġstati": 8359,
      "ĠJuli": 8360,
      "niÄĻ": 8361,
      "Ġwritten": 8362,
      "Ġpersonnes": 8363,
      "onial": 8364,
      "izen": 8365,
      "Ġdispos": 8366,
      "ĠAmerikaanse": 8367,
      "ĠPrime": 8368,
      "auc": 8369,
      "ificaÃ§Ã£o": 8370,
      "Ġburg": 8371,
      "ĠTel": 8372,
      "Ġminim": 8373,
      "ething": 8374,
      "tica": 8375,
      "Ġlag": 8376,
      "Ġzaj": 8377,
      "ulares": 8378,
      "ĠFrancesco": 8379,
      "geveer": 8380,
      "ein": 8381,
      "Ġachter": 8382,
      "Ġquien": 8383,
      "ijns": 8384,
      "his": 8385,
      "razione": 8386,
      "Ġfrancese": 8387,
      "ĠpaÅĦstw": 8388,
      "%)": 8389,
      "Ġislam": 8390,
      "Ġaband": 8391,
      "osso": 8392,
      "enses": 8393,
      "Ġvast": 8394,
      "richt": 8395,
      "ĠAward": 8396,
      "elligence": 8397,
      "TP": 8398,
      "Ġdados": 8399,
      "ĠMem": 8400,
      "Ġrid": 8401,
      "Ġweg": 8402,
      "Ġgennaio": 8403,
      "Ġhace": 8404,
      "icale": 8405,
      "Ġmaken": 8406,
      "Ġwant": 8407,
      "Ġjazz": 8408,
      "Ġplantas": 8409,
      "Ġreste": 8410,
      "rary": 8411,
      "Ġcher": 8412,
      "Ġalgumas": 8413,
      ".<": 8414,
      "Ġszy": 8415,
      "Ġwen": 8416,
      "Ġinstitu": 8417,
      "Ġmillones": 8418,
      "ĠEntwick": 8419,
      "mark": 8420,
      "ĠGroÃŁ": 8421,
      "ĠSociety": 8422,
      "Ġcorrel": 8423,
      "Ġfilozof": 8424,
      "ported": 8425,
      "Ġbig": 8426,
      "Ġparall": 8427,
      "Ġmanagement": 8428,
      "ĠPom": 8429,
      "Ġtinha": 8430,
      "istra": 8431,
      "ĠHeinrich": 8432,
      "lÄħ": 8433,
      "Ġhin": 8434,
      "Ġprend": 8435,
      "Ġhistoryk": 8436,
      "ains": 8437,
      "ãģ": 8438,
      "ĠpÃºblic": 8439,
      "ĠKn": 8440,
      "Ġfocus": 8441,
      "rieben": 8442,
      "ĠGreen": 8443,
      "Ġpog": 8444,
      "olt": 8445,
      "Ġkeep": 8446,
      "Ġlearning": 8447,
      "Ġnasc": 8448,
      "ĠOtto": 8449,
      "ĠIsra": 8450,
      "owaÅĤa": 8451,
      "Ġpiano": 8452,
      "qua": 8453,
      "ĠPla": 8454,
      "ĠBell": 8455,
      "Ġnova": 8456,
      "Ġnauk": 8457,
      "Ġforms": 8458,
      "ĠOktober": 8459,
      "hing": 8460,
      "Ġmid": 8461,
      "elden": 8462,
      "ĠLim": 8463,
      "attro": 8464,
      "ĠmayorÃŃa": 8465,
      "Ġsujet": 8466,
      "ĠWo": 8467,
      "ardoor": 8468,
      "Ġuses": 8469,
      "ĠproducciÃ³n": 8470,
      "ĠniÅ¼": 8471,
      "ationen": 8472,
      "ctive": 8473,
      "Sp": 8474,
      "Ġsiendo": 8475,
      "phen": 8476,
      "Ġterritoire": 8477,
      "Ġczasie": 8478,
      "DR": 8479,
      "Ġdirector": 8480,
      "Ġdiagn": 8481,
      "Ġgrootste": 8482,
      "fÃ¼": 8483,
      "Ġ38": 8484,
      "olÃ³gica": 8485,
      "Ġlongo": 8486,
      "Ã¡p": 8487,
      "Ġforn": 8488,
      "tig": 8489,
      "Ġerh": 8490,
      "Ġtechnique": 8491,
      "ĠGott": 8492,
      "Ã«n": 8493,
      "ĠÃĪ": 8494,
      "ĠKoÅĽci": 8495,
      "ĠWillem": 8496,
      ".-": 8497,
      "ĠKr": 8498,
      "Ã¡st": 8499,
      "Ġnich": 8500,
      "ifier": 8501,
      "ĠinvestigaciÃ³n": 8502,
      "ĠWith": 8503,
      "zia": 8504,
      "zug": 8505,
      "Ġinclude": 8506,
      "ĠRepubblica": 8507,
      "Ġclub": 8508,
      "Ġproprio": 8509,
      "Ġblood": 8510,
      "ĠposeÅĤ": 8511,
      "iland": 8512,
      "Ġterror": 8513,
      "Ġautre": 8514,
      "Ap": 8515,
      "ĠBry": 8516,
      "annte": 8517,
      "Ġmolti": 8518,
      "ĠsÃ³": 8519,
      "Ġtan": 8520,
      "ĠTest": 8521,
      "kw": 8522,
      "Ġpermite": 8523,
      "Ġcuenta": 8524,
      "ĠBeispiel": 8525,
      "ĠLy": 8526,
      "Ġauto": 8527,
      "Ġautomat": 8528,
      "como": 8529,
      "ĠMÃ¤rz": 8530,
      "Ġrecht": 8531,
      "ĠrelaciÃ³n": 8532,
      "won": 8533,
      "isis": 8534,
      "Ã¨de": 8535,
      "Ġpositive": 8536,
      "ĠOce": 8537,
      "Ġresid": 8538,
      "niczy": 8539,
      "Ġdess": 8540,
      "useppe": 8541,
      "writ": 8542,
      "Ġnext": 8543,
      "ĠcÃ³": 8544,
      "non": 8545,
      "side": 8546,
      "Ġled": 8547,
      "iÄĩ": 8548,
      "rote": 8549,
      "Ġprovoc": 8550,
      "Ġcert": 8551,
      "ĠBatt": 8552,
      "zeug": 8553,
      "PC": 8554,
      "atto": 8555,
      "Ġstrutt": 8556,
      "ased": 8557,
      "ĠNon": 8558,
      "Ġpratiques": 8559,
      "voluÃ§Ã£o": 8560,
      "Ġhigher": 8561,
      "ĠTri": 8562,
      "Ġoktober": 8563,
      "Ġligne": 8564,
      "ĠdÅĤug": 8565,
      "Ġdor": 8566,
      "chron": 8567,
      "ĠVere": 8568,
      "ĠregiÃ³n": 8569,
      "Ġconfer": 8570,
      "Ġparticulier": 8571,
      "Ġfive": 8572,
      "Ġlibro": 8573,
      "ĠHamb": 8574,
      "Ġostat": 8575,
      "anej": 8576,
      "Ġprawnik": 8577,
      "gabe": 8578,
      "Ġfoss": 8579,
      "ĠRepubl": 8580,
      "Ġespecies": 8581,
      "Ġenkele": 8582,
      "gs": 8583,
      "then": 8584,
      "Ġfunct": 8585,
      "Ġlead": 8586,
      "astic": 8587,
      "czes": 8588,
      "ĠÅĽmier": 8589,
      "ĠcomeÃ§": 8590,
      "Ġstatus": 8591,
      "ĠMot": 8592,
      "ĠChurch": 8593,
      "ĠDat": 8594,
      "ÅĤum": 8595,
      "ĠFestival": 8596,
      "Ã¡veis": 8597,
      "Ġresultado": 8598,
      "Ġwojny": 8599,
      "inu": 8600,
      "ĠrÃ©se": 8601,
      "stitution": 8602,
      "kry": 8603,
      "Ġ</": 8604,
      "Ġprol": 8605,
      "Ġorigen": 8606,
      "Ġcostitu": 8607,
      "onna": 8608,
      "Ġvict": 8609,
      "ĠPost": 8610,
      "Ġestudo": 8611,
      "Ġjanuari": 8612,
      "Ġ1908": 8613,
      "Ġtipos": 8614,
      "mato": 8615,
      "EE": 8616,
      "ĠLiv": 8617,
      "Ġmuj": 8618,
      "Ġfosse": 8619,
      "kÄĻ": 8620,
      "igital": 8621,
      "Ġ2026": 8622,
      "ĠGlob": 8623,
      "ķĲ": 8624,
      "otid": 8625,
      "Ġregional": 8626,
      "Ġtweede": 8627,
      "ĠCos": 8628,
      "ĠGil": 8629,
      "hme": 8630,
      "icon": 8631,
      "Ġaddress": 8632,
      "ography": 8633,
      "Ġlibre": 8634,
      "Ġpmc": 8635,
      "Ġiz": 8636,
      "ĠBec": 8637,
      "Ġsull": 8638,
      "Ġvill": 8639,
      "Ġcomunic": 8640,
      "ociation": 8641,
      "ĠKrzy": 8642,
      "Ġoorlog": 8643,
      "egÃ³l": 8644,
      "Ġmateria": 8645,
      "jos": 8646,
      "ĠCrist": 8647,
      "amenti": 8648,
      "Ġwhole": 8649,
      "Ġflu": 8650,
      "Ġnuovo": 8651,
      "Ġprotagon": 8652,
      "Ġfemin": 8653,
      "alla": 8654,
      "Ġobservations": 8655,
      "ured": 8656,
      "Ġdod": 8657,
      "Ġllev": 8658,
      "ĠprÃ³pr": 8659,
      "ĠCant": 8660,
      "pero": 8661,
      "Ġerg": 8662,
      "ĠÃ©tude": 8663,
      "ĠAdolf": 8664,
      "Ġcharakter": 8665,
      "Ġphase": 8666,
      "ebruari": 8667,
      "Ġmist": 8668,
      "ĠMachine": 8669,
      "ĠksiÄħÅ¼": 8670,
      "Ġdefinit": 8671,
      "ĠpÅĤ": 8672,
      "ĠProf": 8673,
      "Ġtutto": 8674,
      "Ġfactor": 8675,
      "oczÄĻ": 8676,
      "ĠfÃ©": 8677,
      "oup": 8678,
      "izm": 8679,
      "vens": 8680,
      "ĠvÃ¡rias": 8681,
      "Ġvector": 8682,
      "aan": 8683,
      "aki": 8684,
      "uerto": 8685,
      "yed": 8686,
      "ĠFrankrijk": 8687,
      "Ġrosyj": 8688,
      "ĠRÃ©publique": 8689,
      "Ġvarios": 8690,
      "Ġlok": 8691,
      "atte": 8692,
      "imagen": 8693,
      "Ġimage": 8694,
      "Ġzespo": 8695,
      "acia": 8696,
      "Ġszwed": 8697,
      "2011": 8698,
      "Ġverte": 8699,
      "aniem": 8700,
      "ĠVerd": 8701,
      "Ġbund": 8702,
      "ĠrÃ¨g": 8703,
      "Ġluglio": 8704,
      "Ġrunning": 8705,
      "ĠMiguel": 8706,
      "Ġihm": 8707,
      "ishing": 8708,
      "Ġhealth": 8709,
      "Ġnivel": 8710,
      "estro": 8711,
      "Ġtram": 8712,
      "Ġagric": 8713,
      "more": 8714,
      "tende": 8715,
      "Ġminor": 8716,
      "Pol": 8717,
      "Ġrate": 8718,
      "ĠFund": 8719,
      "ĠPrim": 8720,
      "Ùħ": 8721,
      "Ġbring": 8722,
      "Ġhold": 8723,
      "ĠNr": 8724,
      "Ġmine": 8725,
      "ĠDE": 8726,
      "Ġrig": 8727,
      "ĠÃ³": 8728,
      "Ġ400": 8729,
      "ĠØ": 8730,
      "Ġolymp": 8731,
      "ĠgÃ©nero": 8732,
      "Ã©ma": 8733,
      "edo": 8734,
      "aise": 8735,
      "ogene": 8736,
      "ĠIN": 8737,
      "Ã©tude": 8738,
      "Ġodby": 8739,
      "ĠFirst": 8740,
      "size": 8741,
      "ĠCuba": 8742,
      "Ġarriv": 8743,
      "Ġderen": 8744,
      "Ã¡lise": 8745,
      "Ġoppos": 8746,
      "Ġeconomia": 8747,
      "jourd": 8748,
      "usalem": 8749,
      "ĠHall": 8750,
      "Ġayant": 8751,
      "Ã¤nde": 8752,
      "ĠokoÅĤo": 8753,
      "Ġconfigur": 8754,
      "Ġseptiembre": 8755,
      "ĠColombia": 8756,
      "ĠTwe": 8757,
      "Ġprimi": 8758,
      "ĠinglÃ©s": 8759,
      "Ġsettembre": 8760,
      "Ġfus": 8761,
      "Ġther": 8762,
      "Ġelemento": 8763,
      "Ġquantum": 8764,
      "Ġtexto": 8765,
      "Por": 8766,
      "ĠMir": 8767,
      "ĠVe": 8768,
      "verg": 8769,
      "Ġimmer": 8770,
      "ills": 8771,
      "polit": 8772,
      "ÅĦskie": 8773,
      "Ġfunkc": 8774,
      "Ġapplication": 8775,
      "Ġmoderna": 8776,
      "idÃ©": 8777,
      "acto": 8778,
      "ynast": 8779,
      "ologische": 8780,
      "Ġabit": 8781,
      "Ġedific": 8782,
      "ueb": 8783,
      "Ġmi": 8784,
      "ĠSS": 8785,
      "Ġrange": 8786,
      "ĠmÄĻ": 8787,
      "ĠktÃ³rej": 8788,
      "zes": 8789,
      "Ġage": 8790,
      "angel": 8791,
      "ĠBlack": 8792,
      "itch": 8793,
      "Ġnetwork": 8794,
      "Europe": 8795,
      "250": 8796,
      "Ġcross": 8797,
      "Ġveget": 8798,
      "2001": 8799,
      "plan": 8800,
      "lemagne": 8801,
      "ĠFranse": 8802,
      "Ġdegree": 8803,
      "Ġgalaxies": 8804,
      "orzyst": 8805,
      "Op": 8806,
      "ĠGover": 8807,
      "ĠCanad": 8808,
      "ĠHistoria": 8809,
      "abilitÃ©": 8810,
      "MA": 8811,
      "Ġwalk": 8812,
      "elte": 8813,
      "Ġintel": 8814,
      "ĠCasa": 8815,
      "Ġhund": 8816,
      "plor": 8817,
      "Ġtoe": 8818,
      "Ġdeveloped": 8819,
      "Ġ39": 8820,
      "Ã¼rger": 8821,
      "ĠJanuar": 8822,
      "ĠGeorges": 8823,
      "ĠMicrosoft": 8824,
      "izia": 8825,
      "ĠSic": 8826,
      "oute": 8827,
      "uper": 8828,
      "ĠAnth": 8829,
      "Ġchron": 8830,
      "Ġmuitas": 8831,
      "Ġilha": 8832,
      "Ġusually": 8833,
      "cesso": 8834,
      "ÅĦcÃ³w": 8835,
      "Ġentwick": 8836,
      "ÃŃcula": 8837,
      "Ġtraining": 8838,
      "Ġsog": 8839,
      "Ġreve": 8840,
      "ĠclÃ¡s": 8841,
      "program": 8842,
      "Ġformula": 8843,
      "Ġgenre": 8844,
      "Ġcomplete": 8845,
      "Ã¨rent": 8846,
      "Ã®tre": 8847,
      "him": 8848,
      "iation": 8849,
      "wiÄĻks": 8850,
      "Ġdistingu": 8851,
      "Ġreflex": 8852,
      "ÃŃtulo": 8853,
      "ĠNova": 8854,
      "Ġself": 8855,
      "dec": 8856,
      "ĨĴ": 8857,
      "ĠSince": 8858,
      "ĠStaats": 8859,
      "Ġcic": 8860,
      "ĠTar": 8861,
      "ĠFÃ¼r": 8862,
      "ulp": 8863,
      "Ġ(âĢŀ": 8864,
      "ished": 8865,
      "Ġdistance": 8866,
      "romagn": 8867,
      "Ġpozosta": 8868,
      "Ġbos": 8869,
      "ĠVis": 8870,
      "Ġprovide": 8871,
      "ivity": 8872,
      "Ġfebrero": 8873,
      "idel": 8874,
      "iedade": 8875,
      "Ġalgunas": 8876,
      "ising": 8877,
      "ĠRelig": 8878,
      "ĠSport": 8879,
      "import": 8880,
      "lage": 8881,
      "ardi": 8882,
      "Ġgiugno": 8883,
      "zem": 8884,
      "ĠTal": 8885,
      "Ġmenor": 8886,
      "dr": 8887,
      "ĠTV": 8888,
      "umes": 8889,
      "ecciÃ³n": 8890,
      "etzung": 8891,
      "Ġtermine": 8892,
      "ĠHoch": 8893,
      "ouwd": 8894,
      "Je": 8895,
      "like": 8896,
      "Ġjuni": 8897,
      "Ġbijvoorbeeld": 8898,
      "ĠTop": 8899,
      "Ġcolleg": 8900,
      "leta": 8901,
      "usch": 8902,
      "2013": 8903,
      "aars": 8904,
      "Ġprakt": 8905,
      "ĠGalile": 8906,
      "Ġinaugur": 8907,
      "Ġwp": 8908,
      "Ġproblemas": 8909,
      "finition": 8910,
      "Ġantigu": 8911,
      "ÅĦstwa": 8912,
      "ÃŃculas": 8913,
      "Ġohne": 8914,
      "Ġhypoth": 8915,
      "ĠTy": 8916,
      "onym": 8917,
      "orias": 8918,
      "interno": 8919,
      "high": 8920,
      "Ġdate": 8921,
      "Ġperspective": 8922,
      "ÂłÂłÂłÂł": 8923,
      "gas": 8924,
      "uages": 8925,
      "igung": 8926,
      "Ġbeim": 8927,
      "DA": 8928,
      "die": 8929,
      "ĠWÅĤad": 8930,
      "Ġpapa": 8931,
      "isseur": 8932,
      "obile": 8933,
      "ozial": 8934,
      "ĠKa": 8935,
      "ĠCorn": 8936,
      "Ġquelle": 8937,
      "ataille": 8938,
      "ografÃŃa": 8939,
      "Ġrealizz": 8940,
      "nd": 8941,
      "Ġpun": 8942,
      "ĠDurch": 8943,
      "Ġrum": 8944,
      "Ġgdzie": 8945,
      "ĠCin": 8946,
      "Ġnuevo": 8947,
      "ĠVII": 8948,
      "Ġtornou": 8949,
      "(-": 8950,
      "hank": 8951,
      "ĠState": 8952,
      "Ġdiesem": 8953,
      "ession": 8954,
      "ysta": 8955,
      "Ġkanad": 8956,
      "Ġnr": 8957,
      "ĠHuman": 8958,
      "Ġonce": 8959,
      "owanych": 8960,
      "iÃ¨res": 8961,
      "Ġvirt": 8962,
      "eks": 8963,
      "mir": 8964,
      "Ġclear": 8965,
      "CA": 8966,
      "ĠRot": 8967,
      "Ġukra": 8968,
      "Ġsingular": 8969,
      "Ġmind": 8970,
      "iaux": 8971,
      "Ġbezeichnet": 8972,
      "2010": 8973,
      "Ġcasos": 8974,
      "Ã³gica": 8975,
      "Ġrede": 8976,
      "schap": 8977,
      "Ġreview": 8978,
      "MP": 8979,
      "Ġproblema": 8980,
      "ĠUniversidade": 8981,
      "Ġservices": 8982,
      "loed": 8983,
      "Ġpeque": 8984,
      "Ġgebied": 8985,
      "ĠTrad": 8986,
      "Ġdevido": 8987,
      "Ġorigem": 8988,
      "Ġportuguesa": 8989,
      "Ġheard": 8990,
      "ÅĤawa": 8991,
      "ĠUniÃ£o": 8992,
      "Ġwait": 8993,
      "raft": 8994,
      "Ġrey": 8995,
      "Ġproducent": 8996,
      "Ġkur": 8997,
      "ĠParte": 8998,
      "Ġpotential": 8999,
      "Ġzgin": 9000,
      "ialmente": 9001,
      "ĠpoczÄħt": 9002,
      "Ġcapitale": 9003,
      "hang": 9004,
      "Ġott": 9005,
      "uri": 9006,
      "ĠprÃ©c": 9007,
      "ĠnÃºcle": 9008,
      "ĠWarszawa": 9009,
      "ĠCass": 9010,
      "ija": 9011,
      "Ġ1906": 9012,
      "ĠClub": 9013,
      "iform": 9014,
      "Ġpatri": 9015,
      "Ġcritique": 9016,
      "Ġtrabaj": 9017,
      "ĠDÃ©": 9018,
      "ipend": 9019,
      "ĠSchm": 9020,
      "Ġwaarin": 9021,
      "Ġfondament": 9022,
      "Ġfire": 9023,
      "Ġrather": 9024,
      "ĠJa": 9025,
      "This": 9026,
      "Ġministre": 9027,
      "ĠNaj": 9028,
      "Ġavail": 9029,
      "gart": 9030,
      "Ġsocio": 9031,
      "ĠSyn": 9032,
      "ĠRus": 9033,
      "caÃ§Ã£o": 9034,
      "ĠArist": 9035,
      "Ġsucc": 9036,
      "izing": 9037,
      "ĠeuropÃ©enne": 9038,
      "Ġ1909": 9039,
      "ground": 9040,
      "Ġvengono": 9041,
      "ĠprÃ¨s": 9042,
      "Ġdecember": 9043,
      "born": 9044,
      "huis": 9045,
      "Ġust": 9046,
      "Ġapril": 9047,
      "ciÄĻ": 9048,
      "Ġdicembre": 9049,
      "rank": 9050,
      "adeimagen": 9051,
      "mt": 9052,
      "Ġteatro": 9053,
      "Ġcoordin": 9054,
      "issent": 9055,
      "ĠProceedings": 9056,
      "Ġlingua": 9057,
      "Ġgehe": 9058,
      "SI": 9059,
      "zÃ¶s": 9060,
      "Ġwol": 9061,
      "ency": 9062,
      "top": 9063,
      "Ġsense": 9064,
      "Ġeerst": 9065,
      "Ġcontexte": 9066,
      "Ġindependent": 9067,
      "porta": 9068,
      "Ġdav": 9069,
      "Ġdebido": 9070,
      "ĠrÃ©sultats": 9071,
      "Ġdir": 9072,
      "Ġlungo": 9073,
      "Ġgave": 9074,
      "Ġplant": 9075,
      "ĠÅĽred": 9076,
      "ĠAuch": 9077,
      "edd": 9078,
      "Ġzero": 9079,
      "ĠJuni": 9080,
      "Ġarche": 9081,
      "ĠÃīd": 9082,
      "Ġmejor": 9083,
      "Ġkrij": 9084,
      "oba": 9085,
      "Î¿": 9086,
      "inie": 9087,
      "atten": 9088,
      "Ġsons": 9089,
      "ĠfaÃ§": 9090,
      "svg": 9091,
      "Ġ||": 9092,
      "ĠMarx": 9093,
      "kste": 9094,
      "lar": 9095,
      "Ġsignifica": 9096,
      "ĠMinist": 9097,
      "Ġfemmes": 9098,
      "geme": 9099,
      "ectos": 9100,
      "nos": 9101,
      "dez": 9102,
      "Ġseptember": 9103,
      "Ġsemi": 9104,
      "Ġprobl": 9105,
      "uguay": 9106,
      "onÃ©s": 9107,
      "ĠColl": 9108,
      "lab": 9109,
      "Ġtaal": 9110,
      "Ġvanaf": 9111,
      "Ġgrado": 9112,
      "ichen": 9113,
      "ĠcÃ©lulas": 9114,
      "Ġsets": 9115,
      "mut": 9116,
      "ĠBret": 9117,
      "Ġjulio": 9118,
      "vio": 9119,
      "emaakt": 9120,
      "ĠDÃŃa": 9121,
      "Ġestre": 9122,
      "Ġmez": 9123,
      "Ġmayo": 9124,
      "ĠMÃ©d": 9125,
      "exp": 9126,
      "Ġkonnte": 9127,
      "Ġintr": 9128,
      "Ġfasc": 9129,
      "iah": 9130,
      "Ġmaart": 9131,
      "Ġinvolv": 9132,
      "Ġapproxim": 9133,
      "Ġirland": 9134,
      "Ġlatino": 9135,
      "ĠKu": 9136,
      "iennent": 9137,
      "Ġpublished": 9138,
      "Ġprobability": 9139,
      "Nederland": 9140,
      "ĠBelgiÃ«": 9141,
      "Ġ1000": 9142,
      "ĠFreder": 9143,
      "Ġconquist": 9144,
      "Ġricon": 9145,
      "Ġdoit": 9146,
      "ĠbÅĤ": 9147,
      "iedad": 9148,
      "ĠParl": 9149,
      "Ġpartes": 9150,
      "Ġfigura": 9151,
      "\"|": 9152,
      "ready": 9153,
      "uler": 9154,
      "ĠEth": 9155,
      "apa": 9156,
      "prop": 9157,
      "Ġ1901": 9158,
      "Ġoblig": 9159,
      "Ġpossui": 9160,
      "Ġprefer": 9161,
      "Ġsolutions": 9162,
      "ĠYe": 9163,
      "Ġ1907": 9164,
      "ĠMah": 9165,
      "inaire": 9166,
      "ogle": 9167,
      "autre": 9168,
      "Ġinspir": 9169,
      "Ġinner": 9170,
      "Ġpresso": 9171,
      "Ġgovernment": 9172,
      "Ġallo": 9173,
      "Ġprowad": 9174,
      "Ġthing": 9175,
      "ĠMuseo": 9176,
      "ĠMoh": 9177,
      "elfde": 9178,
      "ĠdiffÃ©rentes": 9179,
      "rated": 9180,
      "eron": 9181,
      "rachen": 9182,
      "lesia": 9183,
      "lÃ¤": 9184,
      "ĠKan": 9185,
      "Ġbekannt": 9186,
      "Ġissue": 9187,
      "ĠlÃŃngua": 9188,
      "ĠGiuseppe": 9189,
      "Ġsareb": 9190,
      "ĠNu": 9191,
      "ĠBei": 9192,
      "Ġvolgens": 9193,
      "----": 9194,
      "Ġspesso": 9195,
      "Ġinteress": 9196,
      "Ġground": 9197,
      "kowo": 9198,
      "Ġznac": 9199,
      "ffe": 9200,
      "eraÃ§Ã£o": 9201,
      "ĠhÃ¶": 9202,
      "ĠEconom": 9203,
      "ikel": 9204,
      "rer": 9205,
      "Ġoutro": 9206,
      "Ġ48": 9207,
      "rÃ©s": 9208,
      "ĠSchwe": 9209,
      "ĠlittÃ©rature": 9210,
      "iende": 9211,
      "Ġespacio": 9212,
      "miniaturadeimagen": 9213,
      "ĠUnido": 9214,
      "],": 9215,
      "Ġbuiten": 9216,
      "Ġfri": 9217,
      "Ġnut": 9218,
      "Ġorb": 9219,
      "Ġoptim": 9220,
      "wert": 9221,
      "ĠCre": 9222,
      "Ġparts": 9223,
      "akes": 9224,
      "Ġnazionale": 9225,
      "JPG": 9226,
      "ĠRoyal": 9227,
      "plication": 9228,
      "Ġinfl": 9229,
      "Ġdiffic": 9230,
      "Col": 9231,
      "ĠArthur": 9232,
      "ĠSing": 9233,
      "ĠVill": 9234,
      "Ġnomin": 9235,
      "Ġtell": 9236,
      "aris": 9237,
      "Ġfrancesa": 9238,
      "ariant": 9239,
      "chos": 9240,
      "ĠBot": 9241,
      "Ġ65": 9242,
      "fas": 9243,
      "ienza": 9244,
      "Ġavait": 9245,
      "Ġzangeres": 9246,
      "Ġmie": 9247,
      "Ġmedida": 9248,
      "ĠSantiago": 9249,
      "ĠPartido": 9250,
      "ĠbÄĻd": 9251,
      "Ġconsegu": 9252,
      "Ġfarm": 9253,
      "ĠChine": 9254,
      "Ġregime": 9255,
      "Ġstudio": 9256,
      "ĠRegno": 9257,
      "mund": 9258,
      "anh": 9259,
      "aya": 9260,
      "ĠMerc": 9261,
      "Ġfeatures": 9262,
      "Ġgreg": 9263,
      "ĠÃ©tant": 9264,
      "ĠHend": 9265,
      "issant": 9266,
      "unal": 9267,
      "Ġfib": 9268,
      "Ġsteeds": 9269,
      "Ġcatt": 9270,
      "Ġread": 9271,
      "Ġfinale": 9272,
      "Ġcrise": 9273,
      "cja": 9274,
      "Ġ75": 9275,
      "ĠÅ¼yd": 9276,
      "nienia": 9277,
      "ogra": 9278,
      "Ġwyb": 9279,
      "2005": 9280,
      "Ġattraverso": 9281,
      "2003": 9282,
      "Ġconsequ": 9283,
      "nu": 9284,
      "Ġbeeld": 9285,
      "oloog": 9286,
      "Ġinicial": 9287,
      "ĠBuen": 9288,
      "Ġreprodu": 9289,
      "board": 9290,
      "roduction": 9291,
      "Ġcrisis": 9292,
      "ĠBrazil": 9293,
      "acio": 9294,
      "rio": 9295,
      "ÅĽrÃ³d": 9296,
      "uits": 9297,
      "hÃ¤ng": 9298,
      "ĠMath": 9299,
      "medi": 9300,
      "stract": 9301,
      "Ġpedagog": 9302,
      "Ã¸": 9303,
      "urent": 9304,
      "span": 9305,
      "gesetz": 9306,
      "ĠSus": 9307,
      "ĠDio": 9308,
      "Ġspre": 9309,
      "ĠNorm": 9310,
      "Ġtradicional": 9311,
      "ĠRese": 9312,
      "Ġstatt": 9313,
      "Ġwhom": 9314,
      "Ġtemp": 9315,
      "Ġmagnet": 9316,
      "ĠdiffÃ©rents": 9317,
      "Ġstatunit": 9318,
      "iewicz": 9319,
      "ÅĽc": 9320,
      "Ġfrente": 9321,
      "http": 9322,
      "zet": 9323,
      "Ġroma": 9324,
      "Ã¼nst": 9325,
      "icion": 9326,
      "Ġperc": 9327,
      "Ġestudios": 9328,
      "ĠjuÅ¼": 9329,
      "ĠMarch": 9330,
      "Ġsomet": 9331,
      "icien": 9332,
      "Ġtradu": 9333,
      "ĠprÃ©sente": 9334,
      "ouvelles": 9335,
      "Ġmexicano": 9336,
      "Ġothers": 9337,
      "ĠSac": 9338,
      "Ġrelative": 9339,
      "jedn": 9340,
      "Ġpadre": 9341,
      "irc": 9342,
      "ĠMann": 9343,
      "Ġrep": 9344,
      "onds": 9345,
      "Ġgruppo": 9346,
      "ount": 9347,
      "Ġeind": 9348,
      "ĠGemein": 9349,
      "agens": 9350,
      "Ġsound": 9351,
      "Ġcarb": 9352,
      "Sa": 9353,
      "Ġjuli": 9354,
      "Ã¤re": 9355,
      "Ġesse": 9356,
      "Ġinclus": 9357,
      "ĠHerr": 9358,
      "2006": 9359,
      "Å«": 9360,
      "idt": 9361,
      "acki": 9362,
      "Ġpropri": 9363,
      "ĠDezember": 9364,
      "Ġcorso": 9365,
      "ĠNeg": 9366,
      "Ã´nia": 9367,
      "Ġigual": 9368,
      "iling": 9369,
      "Ġmuchos": 9370,
      "Ġhumanos": 9371,
      "ĠFu": 9372,
      "Ġarist": 9373,
      "ĠespecÃŃf": 9374,
      "Ġdesta": 9375,
      "Ġconvert": 9376,
      "ĠindÃŃgen": 9377,
      "ĠBerl": 9378,
      "Ġszcz": 9379,
      "-,": 9380,
      "komen": 9381,
      "izada": 9382,
      "atoire": 9383,
      "Ġprocessus": 9384,
      "gericht": 9385,
      "Ġjeu": 9386,
      "egos": 9387,
      "cej": 9388,
      "ĠsamorzÄħd": 9389,
      "Ġvariable": 9390,
      "Ġbeiden": 9391,
      "Ġplat": 9392,
      "Ġportugu": 9393,
      "rey": 9394,
      "Ġverwendet": 9395,
      "ĠademÃ¡s": 9396,
      "Ġdenen": 9397,
      "ext": 9398,
      "Ġnaturale": 9399,
      "Ġnovember": 9400,
      "iblioteca": 9401,
      "cional": 9402,
      "Ġlangues": 9403,
      "Ġgestion": 9404,
      "Ġterme": 9405,
      "Ġpicc": 9406,
      "Ġproposed": 9407,
      "Ġinoltre": 9408,
      "Ãºl": 9409,
      "usters": 9410,
      "Ġeffects": 9411,
      "ĠLong": 9412,
      "Ġacu": 9413,
      "Ġrecursos": 9414,
      "Ġcambio": 9415,
      "CE": 9416,
      "ĠJack": 9417,
      "Ġbestimm": 9418,
      "Ġnombreuses": 9419,
      "set": 9420,
      "tan": 9421,
      "Ġclima": 9422,
      "idental": 9423,
      "iken": 9424,
      "Ġkraj": 9425,
      "ĠFernando": 9426,
      "ĠCost": 9427,
      "acje": 9428,
      "Union": 9429,
      "ĠSob": 9430,
      "Ġromana": 9431,
      "Ġdol": 9432,
      "Ġuntersch": 9433,
      "IST": 9434,
      "icios": 9435,
      "Ġinstal": 9436,
      "Ġblij": 9437,
      "ĠskÅĤad": 9438,
      "ĠXVII": 9439,
      "ĠGia": 9440,
      "Ġlex": 9441,
      "Ġoddz": 9442,
      "Ġmoy": 9443,
      "ypte": 9444,
      "ĠLag": 9445,
      "temente": 9446,
      "nio": 9447,
      "Ġton": 9448,
      "ostÄĻp": 9449,
      "otes": 9450,
      "ĠForsch": 9451,
      "Ġchaque": 9452,
      "Ed": 9453,
      "Ind": 9454,
      "itudes": 9455,
      "Ġhar": 9456,
      "Ġrevis": 9457,
      "Ġtotale": 9458,
      "loc": 9459,
      "altra": 9460,
      "Ġinfluence": 9461,
      "Ġobjeto": 9462,
      "Ġkleine": 9463,
      "Ġjunio": 9464,
      "altung": 9465,
      "iczny": 9466,
      "sterreich": 9467,
      "Ġmakes": 9468,
      "ktÃ³": 9469,
      "Ġmouvement": 9470,
      "Ġelettr": 9471,
      "Ġanalyz": 9472,
      "Ġongeveer": 9473,
      "Ġconstitution": 9474,
      "Ġguit": 9475,
      "ĠAmaz": 9476,
      "giore": 9477,
      "atorio": 9478,
      "ĠLam": 9479,
      "znaw": 9480,
      "Ġrang": 9481,
      "ĠVic": 9482,
      "Ġ(),": 9483,
      "2004": 9484,
      "matic": 9485,
      "Ġgaz": 9486,
      "Ġquattro": 9487,
      "Ġmuziek": 9488,
      "Ġdichter": 9489,
      "Ġsites": 9490,
      "ĠZu": 9491,
      "keiten": 9492,
      "Ġrispetto": 9493,
      "].": 9494,
      "nÃ©": 9495,
      "nicas": 9496,
      "Ġhocke": 9497,
      "Ġ>": 9498,
      "imir": 9499,
      "Ġeducation": 9500,
      "Ġanimal": 9501,
      "spr": 9502,
      "ĠOt": 9503,
      "Ġcluster": 9504,
      "iod": 9505,
      "cciones": 9506,
      "2007": 9507,
      "hung": 9508,
      "itore": 9509,
      "kol": 9510,
      "ĠMagn": 9511,
      "izin": 9512,
      "ĠAndrze": 9513,
      "aient": 9514,
      "greg": 9515,
      "punkt": 9516,
      "rt": 9517,
      "elas": 9518,
      "ĠKos": 9519,
      "ĠVon": 9520,
      "area": 9521,
      "Ġappr": 9522,
      "Ġconstant": 9523,
      "ĠBegriff": 9524,
      "rov": 9525,
      "Ġwprowad": 9526,
      "ĠElement": 9527,
      "ĠGli": 9528,
      "ĠRhe": 9529,
      "Ã¨ce": 9530,
      "Ġconsult": 9531,
      "Ġfamilia": 9532,
      "stelling": 9533,
      "ĠmatÃ©r": 9534,
      "Ġmorph": 9535,
      "Ġrivol": 9536,
      "ĠSpanish": 9537,
      "Ġlange": 9538,
      "ysis": 9539,
      "Ġaller": 9540,
      "ariamente": 9541,
      "Ġnoviembre": 9542,
      "ĠFrankfurt": 9543,
      "ĠCruz": 9544,
      "Ġallows": 9545,
      "Ã¶rper": 9546,
      "Ġdiversi": 9547,
      "Ġmieszka": 9548,
      "rus": 9549,
      "2002": 9550,
      "ĠLondres": 9551,
      "ĠsantÃ©": 9552,
      "Ġverk": 9553,
      "intes": 9554,
      "'t": 9555,
      "oit": 9556,
      "ĠFreguesia": 9557,
      "oorlog": 9558,
      "itto": 9559,
      "US": 9560,
      "ignement": 9561,
      "Ġdepart": 9562,
      "Ġlett": 9563,
      "erdings": 9564,
      "ĠVin": 9565,
      "Ã¤tz": 9566,
      "ĠAtt": 9567,
      "Ġposto": 9568,
      "Ġloi": 9569,
      "Ġlegisl": 9570,
      "rob": 9571,
      "Ġdied": 9572,
      "Ġcheg": 9573,
      "alg": 9574,
      "ĠNAS": 9575,
      "Ġtenis": 9576,
      "Ġrecogn": 9577,
      "lande": 9578,
      "Ã¶ffent": 9579,
      "Ġmodal": 9580,
      "hochkant": 9581,
      "Ġletz": 9582,
      "ĠNaz": 9583,
      "hren": 9584,
      "Ġ44": 9585,
      "ĠSimon": 9586,
      "hum": 9587,
      "Ġmul": 9588,
      "cop": 9589,
      "Ġrio": 9590,
      "irse": 9591,
      "utor": 9592,
      "Ġantig": 9593,
      "Ġmalarz": 9594,
      "iri": 9595,
      "ĠkaÅ¼": 9596,
      "Ġarbit": 9597,
      "Ġanalog": 9598,
      "anni": 9599,
      "Ġstreng": 9600,
      "tout": 9601,
      "ĠResearch": 9602,
      "inand": 9603,
      "Ġkern": 9604,
      "ĠHugo": 9605,
      "Ġforce": 9606,
      "neas": 9607,
      "czne": 9608,
      "ĠGrie": 9609,
      "Ġprec": 9610,
      "uez": 9611,
      "ynomial": 9612,
      "ĠLuft": 9613,
      "ĠVas": 9614,
[...]
